node {
  name: "global_step/Initializer/zeros"
  op: "Const"
  attr {
    key: "_class"
    value {
      list {
        s: "loc:@global_step"
      }
    }
  }
  attr {
    key: "_output_shapes"
    value {
      list {
        shape {
        }
      }
    }
  }
  attr {
    key: "dtype"
    value {
      type: DT_INT64
    }
  }
  attr {
    key: "value"
    value {
      tensor {
        dtype: DT_INT64
        tensor_shape {
        }
        int64_val: 0
      }
    }
  }
}
node {
  name: "global_step"
  op: "VarHandleOp"
  attr {
    key: "_class"
    value {
      list {
        s: "loc:@global_step"
      }
    }
  }
  attr {
    key: "_output_shapes"
    value {
      list {
        shape {
        }
      }
    }
  }
  attr {
    key: "container"
    value {
      s: ""
    }
  }
  attr {
    key: "dtype"
    value {
      type: DT_INT64
    }
  }
  attr {
    key: "shape"
    value {
      shape {
      }
    }
  }
  attr {
    key: "shared_name"
    value {
      s: "global_step"
    }
  }
}
node {
  name: "global_step/IsInitialized/VarIsInitializedOp"
  op: "VarIsInitializedOp"
  input: "global_step"
  attr {
    key: "_output_shapes"
    value {
      list {
        shape {
        }
      }
    }
  }
}
node {
  name: "global_step/Assign"
  op: "AssignVariableOp"
  input: "global_step"
  input: "global_step/Initializer/zeros"
  attr {
    key: "dtype"
    value {
      type: DT_INT64
    }
  }
}
node {
  name: "global_step/Read/ReadVariableOp"
  op: "ReadVariableOp"
  input: "global_step"
  attr {
    key: "_output_shapes"
    value {
      list {
        shape {
        }
      }
    }
  }
  attr {
    key: "dtype"
    value {
      type: DT_INT64
    }
  }
}
node {
  name: "global_step/VarIsInitializedOp"
  op: "VarIsInitializedOp"
  input: "global_step"
  attr {
    key: "_output_shapes"
    value {
      list {
        shape {
        }
      }
    }
  }
}
node {
  name: "global_step/cond"
  op: "If"
  input: "global_step/VarIsInitializedOp"
  input: "global_step"
  input: "global_step/Initializer/zeros"
  attr {
    key: "Tcond"
    value {
      type: DT_BOOL
    }
  }
  attr {
    key: "Tin"
    value {
      list {
        type: DT_RESOURCE
        type: DT_INT64
      }
    }
  }
  attr {
    key: "Tout"
    value {
      list {
        type: DT_INT64
      }
    }
  }
  attr {
    key: "_lower_using_switch_merge"
    value {
      b: true
    }
  }
  attr {
    key: "_output_shapes"
    value {
      list {
        shape {
        }
      }
    }
  }
  attr {
    key: "_read_only_resource_inputs"
    value {
      list {
        i: 1
      }
    }
  }
  attr {
    key: "else_branch"
    value {
      func {
        name: "global_step_cond_false_7"
      }
    }
  }
  attr {
    key: "output_shapes"
    value {
      list {
        shape {
        }
      }
    }
  }
  attr {
    key: "then_branch"
    value {
      func {
        name: "global_step_cond_true_6"
      }
    }
  }
}
node {
  name: "global_step/cond/Identity"
  op: "Identity"
  input: "global_step/cond"
  attr {
    key: "T"
    value {
      type: DT_INT64
    }
  }
  attr {
    key: "_output_shapes"
    value {
      list {
        shape {
        }
      }
    }
  }
}
node {
  name: "global_step/add/y"
  op: "Const"
  attr {
    key: "_output_shapes"
    value {
      list {
        shape {
        }
      }
    }
  }
  attr {
    key: "dtype"
    value {
      type: DT_INT64
    }
  }
  attr {
    key: "value"
    value {
      tensor {
        dtype: DT_INT64
        tensor_shape {
        }
        int64_val: 0
      }
    }
  }
}
node {
  name: "global_step/add"
  op: "AddV2"
  input: "global_step/cond/Identity"
  input: "global_step/add/y"
  attr {
    key: "T"
    value {
      type: DT_INT64
    }
  }
  attr {
    key: "_output_shapes"
    value {
      list {
        shape {
        }
      }
    }
  }
}
node {
  name: "normalize_element/component_0"
  op: "Const"
  device: "/device:CPU:0"
  attr {
    key: "_output_shapes"
    value {
      list {
        shape {
          dim {
            size: 405
          }
        }
      }
    }
  }
  attr {
    key: "dtype"
    value {
      type: DT_DOUBLE
    }
  }
  attr {
    key: "value"
    value {
      tensor {
        dtype: DT_DOUBLE
        tensor_shape {
          dim {
            size: 405
          }
        }
        tensor_content: "33333\223Q@333333L@\000\000\000\000\000`U@ffffff5@\315\314\314\314\314\014X@\232\231\231\231\231yX@ffffff7@\000\000\000\000\000\000Y@33333sW@fffff\206P@\232\231\231\231\231\271R@\232\231\231\231\231\031<@\315\314\314\314\314LP@\232\231\231\231\231\031?@\232\231\231\231\231\231V@\000\000\000\000\000\000Y@33333SW@\000\000\000\000\000\300T@333333C@\315\314\314\314\314\354W@\315\314\314\314\314lS@\000\000\000\000\000\000Y@33333\323U@\315\314\314\314\314\014D@\315\314\314\314\314\3141@\232\231\231\231\231\331W@\232\231\231\231\2319X@\000\000\000\000\000@H@\232\231\231\231\231YV@\232\231\231\231\231\271X@33333\363A@\315\314\314\314\314\214Q@fffff\346?@fffff&X@\232\231\231\231\231\031@@\315\314\314\314\314LE@\232\231\231\231\231\031X@\232\231\231\231\231\031K@\000\000\000\000\000\000Y@33333\363S@3333331@\000\000\000\000\000@C@333333T@\232\231\231\231\231YX@\315\314\314\314\314,X@\000\000\000\000\000 S@\315\314\314\314\314\214X@\315\314\314\314\314\254W@\000\000\000\000\000@W@\232\231\231\231\231YU@fffff\346P@33333sJ@\232\231\231\231\231YM@fffff\006X@\000\000\000\000\000\200X@33333\363P@33333sS@ffffffJ@\315\314\314\314\314lT@\232\231\231\231\231\231Q@\000\000\000\000\000\000Y@\315\314\314\314\314\014L@\232\231\231\231\231\271X@fffff\206U@\232\231\231\231\231\231#@333333M@33333SR@\232\231\231\231\231\331M@fffff&E@33333\363V@fffff\346<@\000\000\000\000\000\000Y@\232\231\231\231\231\331V@33333\323U@\315\314\314\314\314LU@fffff&D@\000\000\000\000\000`X@fffff\346?@\000\000\000\000\000\000Y@33333\263;@33333\263X@fffff\246T@33333sC@fffff\246W@333333F@\232\231\231\231\231\0314@33333\223X@ffffff-@fffff\246Q@\315\314\314\314\314\214X@\000\000\000\000\000\300V@\232\231\231\231\231\271U@33333\263X@fffff\246P@\315\314\314\314\314\254S@\232\231\231\231\231\271T@fffffFQ@\315\314\314\314\314\314J@33333\223S@333333K@\232\231\231\231\231\331M@\000\000\000\000\000\000Y@ffffff\032@333333=@fffff\206X@\232\231\231\231\231\331J@fffff\246Q@fffff&W@333333Q@33333\323Q@\315\314\314\314\314LJ@fffff\006U@fffff\206S@\232\231\231\231\231\371Q@\000\000\000\000\000\000Y@\315\314\314\314\314L:@33333\263F@\315\314\314\314\314LB@\232\231\231\231\231\231/@\000\000\000\000\000\300P@\315\314\314\314\314\3149@fffff\206W@333333\007@fffff\306V@fffff\3466@33333SP@ffffff2@\315\314\314\314\314,S@\000\000\000\000\000 V@\000\000\000\000\000\300@@fffff\246@@\315\314\314\314\314\314P@fffff\346<@\000\000\000\000\000@X@\232\231\231\231\231\231Q@\315\314\314\314\314\214D@\000\000\000\000\000\000Y@\232\231\231\231\231\371U@33333\323T@\232\231\231\231\231\371V@\000\000\000\000\000\2003@\232\231\231\231\231yX@\232\231\231\231\231\371V@\000\000\000\000\000\2002@fffff\346;@33333sA@fffff&J@\000\000\000\000\000\240W@fffff\346L@\232\231\231\231\2319W@33333sT@\000\000\000\000\000\000Y@fffff\346N@\232\231\231\231\231YW@33333\263X@\315\314\314\314\314\3145@\232\231\231\231\231\371U@\232\231\231\231\231YM@\315\314\314\314\314\214M@\000\000\000\000\000 S@33333sB@\232\231\231\231\231\271T@\000\000\000\000\000\2001@33333\323W@fffff\346U@\000\000\000\000\000\200?@33333\263;@\315\314\314\314\314\014X@\000\000\000\000\000\000X@\232\231\231\231\231\031@@\232\231\231\231\231yV@\315\314\314\314\314,R@333333V@\315\314\314\314\314\214O@\232\231\231\231\231YL@\315\314\314\314\314\314\030@\315\314\314\314\314\214D@33333SX@33333\263V@\000\000\000\000\000\200@@33333\323V@\232\231\231\231\231yR@\000\000\000\000\000\000Y@\315\314\314\314\314LB@\000\000\000\000\000\000Y@\232\231\231\231\231\031V@\315\314\314\314\314\314S@fffff\346I@\232\231\231\231\231\231G@\315\314\314\314\314lQ@\000\000\000\000\000\200C@\000\000\000\000\000\240U@\315\314\314\314\314\014E@\232\231\231\231\231yX@333333T@\232\231\231\231\231\031U@\232\231\231\231\231YX@\000\000\000\000\000@M@\315\314\314\314\314\314J@ffffffV@\000\000\000\000\000\000Y@\000\000\000\000\000\000Y@fffff&@@33333\363V@fffff&J@\232\231\231\231\231\031?@33333\223U@33333\363H@\315\314\314\314\314lX@33333\363W@\315\314\314\314\314,Q@\232\231\231\231\231\031V@\315\314\314\314\314\314>@\000\000\000\000\000 U@33333\363D@\000\000\000\000\000\000*@\000\000\000\000\000@X@\315\314\314\314\314\214X@ffffffT@\000\000\000\000\000\200O@33333\363I@\232\231\231\231\2319W@\232\231\231\231\231yU@\000\000\000\000\000`Q@\315\314\314\314\314L=@fffff\246H@\315\314\314\314\314LP@\000\000\000\000\000\000Y@\315\314\314\314\314,X@\232\231\231\231\231\231;@fffff&W@\315\314\314\314\314,W@33333\263G@fffff\006Q@fffff\346W@ffffff\032@33333\223R@\232\231\231\231\231\031A@\315\314\314\314\314\3148@333333>@33333SX@\232\231\231\231\231\371U@\000\000\000\000\000\000K@\232\231\231\231\231yW@\315\314\314\314\314\314S@33333s@@\000\000\000\000\000@J@\000\000\000\000\000 S@\232\231\231\231\231\031=@33333SW@ffffffW@\000\000\000\000\000\000Y@ffffffE@33333\263R@\000\000\000\000\000\000X@\000\000\000\000\000@A@\232\231\231\231\231\371U@\000\000\000\000\000\000Y@\315\314\314\314\314\014M@\315\314\314\314\314\3144@ffffff<@\315\314\314\314\314\214@@fffffFV@\000\000\000\000\000@V@ffffff5@\000\000\000\000\000\000Y@\000\000\000\000\000\0001@\232\231\231\231\231\371S@\232\231\231\231\231yX@ffffff5@\232\231\231\231\231\371S@\232\231\231\231\231\331W@33333SV@\000\000\000\000\000\000X@\315\314\314\314\314\314!@\000\000\000\000\000\000Y@\315\314\314\314\314L0@\000\000\000\000\000\000D@\232\231\231\231\231\231J@\232\231\231\231\231\331W@\000\000\000\000\000\000Y@fffff&V@fffffFX@\315\314\314\314\314\314W@\315\314\314\314\314LB@33333SX@\000\000\000\000\000\000H@\000\000\000\000\000\000Y@\000\000\000\000\000\200T@\000\000\000\000\000@O@\232\231\231\231\231\031W@33333\263V@\315\314\314\314\314lS@\232\231\231\231\231\231W@\315\314\314\314\314L?@\000\000\000\000\000\000Y@fffff\3465@\315\314\314\314\314,P@\000\000\000\000\000@S@\000\000\000\000\000\000Y@33333\323W@\000\000\000\000\000\000Y@\232\231\231\231\231\331T@\000\000\000\000\000\300W@\315\314\314\314\314\014Q@33333\263E@\232\231\231\231\231YU@fffff\346B@\000\000\000\000\000\240P@\315\314\314\314\314\314<@fffff\346@@33333\2631@\232\231\231\231\231YR@\232\231\231\231\231\031W@\315\314\314\314\314\214X@\000\000\000\000\000\200I@\315\314\314\314\314LV@\315\314\314\314\314\214H@\315\314\314\314\314,S@\232\231\231\231\231\231.@\232\231\231\231\231\231X@fffff\206W@33333sV@\315\314\314\314\314L6@\232\231\231\231\231\231X@\000\000\000\000\000\000$@\000\000\000\000\000 R@fffff\346J@33333\023T@\000\000\000\000\000\300W@\315\314\314\314\314LX@\232\231\231\231\2319S@fffffFU@\232\231\231\231\231\331A@\315\314\314\314\314,U@\000\000\000\000\000\000Y@\000\000\000\000\000\000Y@\232\231\231\231\231yW@\232\231\231\231\231\031O@\000\000\000\000\000\000S@\315\314\314\314\314\014U@\315\314\314\314\314\014@@fffffFR@\000\000\000\000\000\000Y@fffff\246W@\000\000\000\000\000\000Y@\315\314\314\314\314\314G@\232\231\231\231\231\231G@\232\231\231\231\231\331E@\315\314\314\314\314\3142@fffff&C@\000\000\000\000\000\000V@\000\000\000\000\000\300R@\315\314\314\314\314\014W@\000\000\000\000\000\000Y@fffff\3465@\232\231\231\231\231\331U@\000\000\000\000\000 V@\232\231\231\231\231\271X@\315\314\314\314\314\014B@fffff\246B@\000\000\000\000\000\000Y@\315\314\314\314\314\214P@33333SS@\315\314\314\314\314\314#@ffffffW@33333sW@ffffff/@\000\000\000\000\000\000V@\315\314\314\314\314\314M@\000\000\000\000\000\000V@33333\223W@\000\000\000\000\000\300N@ffffffQ@fffff\006W@fffff&K@\000\000\000\000\000@D@333333D@\000\000\000\000\000\000Y@33333ST@33333\263N@33333\323X@fffff\206X@33333\263W@\315\314\314\314\314L7@\000\000\000\000\000\200F@\315\314\314\314\314\314+@fffff\346F@\000\000\000\000\000\240W@\000\000\000\000\000`R@\232\231\231\231\231\271W@fffff&X@\315\314\314\314\314\214N@\232\231\231\231\231\0315@\000\000\000\000\000\340V@\315\314\314\314\314\314 @\000\000\000\000\000\300T@\000\000\000\000\000\000Y@\315\314\314\314\314\014C@333333X@fffff&K@fffff\346W@\000\000\000\000\000\000Y@\315\314\314\314\314\354T@ffffff2@"
      }
    }
  }
}
node {
  name: "normalize_element/component_1"
  op: "Const"
  device: "/device:CPU:0"
  attr {
    key: "_output_shapes"
    value {
      list {
        shape {
          dim {
            size: 405
          }
        }
      }
    }
  }
  attr {
    key: "dtype"
    value {
      type: DT_DOUBLE
    }
  }
  attr {
    key: "value"
    value {
      tensor {
        dtype: DT_DOUBLE
        tensor_shape {
          dim {
            size: 405
          }
        }
        tensor_content: "fffff\316x@fffff\316x@\244p=\n\327\213x@\217\302\365(\\\303x@q=\n\327\243\314w@\\\217\302\365(\034x@fffff\316x@H\341z\024\256\213w@fffff\316x@{\024\256G\341\202x@\205\353Q\270\036\221x@\354Q\270\036\205?x@\000\000\000\000\000xx@fffff\316x@\315\314\314\314\314\304x@=\n\327\243p\301t@\270\036\205\353Q\260v@\000\000\000\000\000\340w@\270\036\205\353Q\234x@\217\302\365(\\{x@\037\205\353Q\270\306x@q=\n\327\243(e@\327\243p=\n\273x@fffff\316x@fffff\316x@\270\036\205\353Q\270\036@R\270\036\205\353\to@\n\327\243p=\032x@R\270\036\205\353Ex@fffff\316x@\024\256G\341z,w@\256G\341z\024Rx@\315\314\314\314\314hx@\270\036\205\353QHx@\205\353Q\270\036\tw@fffff\316x@\\\217\302\365(\340s@fffff\316x@\354Q\270\036\205#w@{\024\256G\341\212x@\217\302\365(\\sw@fffffVx@fffff\316x@\\\217\302\365(\354r@33333\273w@\232\231\231\231\2319H@\366(\\\217\302Yx@fffff\316x@\205\353Q\270\036\005n@33333\263Q@{\024\256G\341jw@\000\000\000\000\000Lw@R\270\036\205\353\241x@=\n\327\243p\221r@{\024\256G\341\346s@fffff\316x@\303\365(\\\217\"u@fffff\316x@\000\000\000\000\000,x@33333\257w@\000\000\000\000\000\354s@\315\314\314\314\314\204x@\232\231\231\231\231\221x@\315\314\314\314\314\334T@{\024\256G\341\316u@fffff\316x@\303\365(\\\217\036x@\217\302\365(\\_x@fffff\316x@\366(\\\217\302\261x@fffff\316x@fffff\316x@\024\256G\341z\300s@H\341z\024\256\303w@\327\243p=\n;x@\037\205\353Q\270\216x@\315\314\314\314\314\200x@\354Q\270\036\205\253x@)\\\217\302\365\304v@fffff\316x@fffff\316x@\\\217\302\365(\250x@fffff\316x@fffffv[@fffff\316x@\244p=\n\327\003w@\217\302\365(\\\003s@{\024\256G\341\232x@fffff\316x@\037\205\353Q\270\252x@fffff\316x@33333[x@\366(\\\217\302ax@\232\231\231\231\231\271x@R\270\036\205\353\3212@fffff\316x@\244p=\n\327\177x@\\\217\302\365(\260x@\315\314\314\314\314\020x@\244p=\n\327\227x@fffff\2468@H\341z\024\256+x@R\270\036\205\353\365w@{\024\256G\341jx@fffff\316x@fffff&x@333333\r@\037\205\353Q\270.u@\366(\\\217\3021x@\341z\024\256G\271x@\315\314\314\314\314dx@\000\000\000\000\000\270x@\037\205\353Q\270.X@fffff\316x@q=\n\327\243\364w@\244p=\n\327gx@fffff\316x@\244p=\n\327\017r@R\270\036\205\353\271x@q=\n\327\243\010x@\327\243p=\n\347w@\270\036\205\353Q\270\032@\303\365(\\\217\026x@fffff\352u@\354Q\270\036\205;w@fffff\316x@fffff\316x@fffff\316x@fffff\316x@fffff\316x@fffff\316x@\217\302\365(\\\263x@\341z\024\256G\305x@fffff\316x@\256G\341z\024\272x@{\024\256G\341\232x@fffff\316x@\366(\\\217\302\365$@)\\\217\302\365\270x@fffff\316x@q=\n\327\243\200w@fffff\316x@\037\205\353Q\270\272x@\303\365(\\\217\266w@fffff\316x@{\024\256G\341bx@fffff\316x@q=\n\327\243\264t@H\341z\024\256_v@=\n\327\243p\241w@\315\314\314\314\314\214x@q=\n\327\243\250x@fffff\316x@\341z\024\256G\241w@fffff\316x@\256G\341z\024\272x@33333+v@\217\302\365(\\\257x@\205\353Q\270\036\325w@33333Gx@\024\256G\341z\230x@\315\314\314\314\314(v@\244p=\n\327\233x@H\341z\024\256\377s@\315\314\314\314\3148r@\232\231\231\231\231Yu@{\024\256G\341\206x@fffff\316x@\366(\\\217\302\201x@fffff\316x@\205\353Q\270\036\235x@{\024\256G\341Vx@\256G\341z\024&s@)\\\217\302\365\300x@fffff\316x@\037\205\353Q\270\222w@R\270\036\205\353\235x@\256G\341z\024\302u@{\024\256G\341fw@fffff\316x@\244p=\n\327\263x@\315\314\314\314\314\230x@fffff\206A@)\\\217\302\365$v@fffff\316x@\270\036\205\353Q\020x@\n\327\243p=\202w@\270\036\205\353Qlx@fffff\316x@fffffRx@\000\000\000\000\000hx@\366(\\\217\302uI@fffffJx@fffff\316x@fffff\316x@fffff\316x@{\024\256G\341\266v@fffff\316x@\256G\341z\024\212x@\256G\341z\024\276u@\327\243p=\n\273x@\n\327\243p=\312<@)\\\217\302\365\034x@=\n\327\243p\021x@\366(\\\217\302\311v@fffff\316x@fffff\316x@fffff\316x@fffff\316x@\256G\341z\024\266w@H\341z\024\256\223x@{\024\256G\341vx@\217\302\365(\\[x@\270\036\205\353Q\300w@H\341z\024\256+w@\024\256G\341z\304x@)\\\217\302\365$w@q=\n\327\243\200x@=\n\327\243p\271x@\354Q\270\036\205\237x@R\270\036\205\353Ix@33333\257x@\217\302\365(\\+x@33333ox@\232\231\231\231\231-x@\244p=\n\327\253x@fffff\316x@\244p=\n\327\233x@\315\314\314\314\314\240x@33333\227x@{\024\256G\341z\324?=\n\327\243p\261x@\366(\\\217\302mx@\232\231\231\231\231\245w@\\\217\302\365(\\N@H\341z\024\256\373w@\256G\341z\024rx@=\n\327\243p%x@\270\036\205\353Q\270x@{\024\256G\341\226x@\315\314\314\314\314Lw@\315\314\314\314\314<Q@fffff\316x@33333Gx@\354Q\270\036\205sl@fffff\316x@R\270\036\205\353\255x@\244p=\n\327Gw@=\n\327\243p\355w@=\n\327\243p};@\217\302\365(\\\303x@\205\353Q\270\036\235e@fffff\316x@\315\314\314\314\314|X@fffff\316x@\232\231\231\231\231]x@\\\217\302\365(\014Y@\315\314\314\314\314\314\004@\366(\\\217\302\225x@\354Q\270\036\205\253x@\270\036\205\353Q\240x@\217\302\365(\\ox@\327\243p=\n\327_@q=\n\327\243\020v@=\n\327\243p\305w@\354Q\270\036\205kf@\\\217\302\365(\230w@\\\217\302\365(\254x@\n\327\243p=\252s@fffff\316x@\341z\024\256GAw@\341z\024\256G\tv@33333\227x@\270\036\205\353Q\020t@\205\353Q\270\036\221w@\n\327\243p=\036v@fffff\316x@\n\327\243p=Vx@\354Q\270\036\205Cx@fffff\316x@fffff\316x@\244p=\n\327\263x@\244p=\n\327\263x@q=\n\327\243\240t@)\\\217\302\365\300x@H\341z\024\256\327u@fffff\316x@\256G\341z\024*x@33333\023m@fffff\316x@33333wx@R\270\036\205\353\2215@\n\327\243p=fx@\327\243p=\n?x@fffff\316x@fffff\316x@{\024\256G\341\276x@fffff\316x@\024\256G\341z\264x@\000\000\000\000\000@;@fffff\316x@33333s0@{\024\256G\341\266x@\270\036\205\353Qlv@fffff\316x@\341z\024\256G\271x@\217\302\365(\\\227t@33333\347u@33333\203v@q=\n\327\243\224x@fffff\316x@{\024\256G\341fx@\232\231\231\231\231\271x@\244p=\n\327\233x@q=\n\327\2434v@\232\231\231\231\231\215x@\024\256G\341z\210x@\217\302\365(\\kw@\244p=\n\327\303x@fffff\316x@\341z\024\256G\241x@\341z\024\256G\245x@\000\000\000\000\000px@fffff\316x@\\\217\302\365(lp@\341z\024\256G9w@\315\314\314\314\314\224x@\327\243p=\nox@\000\000\000\000\000\000\014@\270\036\205\353Q(Y@\217\302\365(\\\037x@\n\327\243p=\202w@\024\256G\341z\214x@fffff\316x@\303\365(\\\217\0026@fffff\316x@fffff\316x@fffff\316x@fffff\316x@fffff\316x@\244p=\n\327Kx@fffff\316x@\256G\341z\024*u@fffff\316x@q=\n\327\243Dr@\244p=\n\327\243\"@fffff\316x@H\341z\024\256\223x@fffff\316x@33333\213w@33333\203x@)\\\217\302\365hw@R\270\036\205\353\225x@R\270\036\205\353\241x@\341z\024\256G\021V@\315\314\314\314\314\354w@\354Q\270\036\205\247x@33333{x@q=\n\327\243\260x@\217\302\365(\\\007x@\n\327\243p=\302x@\270\036\205\353Qxw@\366(\\\217\302\261x@fffff\316x@R\270\036\205\353\225x@\341z\024\256GAx@\244p=\n\327Ov@\256G\341z\024\266x@\024\256G\341ztu@)\\\217\302\365\254x@\205\353Q\270\036\365w@\270\036\205\353Q\210x@=\n\327\243pux@\341z\024\256G}x@\000\000\000\000\000\224x@\000\000\000\000\000tx@fffff\216x@\000\000\000\000\000\274x@\037\205\353Q\270Nw@\244p=\n\327kx@)\\\217\302\365\230w@R\270\036\205\353}w@\205\353Q\270\036\211w@H\341z\024\256\207E@\000\000\000\000\000\244v@H\341z\024\256\363w@\315\314\314\314\314\004x@\217\302\365(\\/x@\037\205\353Q\270\226x@\270\036\205\353Q\274x@\232\231\231\231\231\375u@q=\n\327\243\020n@\341z\024\256G\215x@fffff\316x@\366(\\\217\302-x@fffff\316x@fffff\316x@{\024\256G\341~x@\217\302\365(\\[x@\341z\024\256Guw@fffff\316x@fffff\316x@\232\231\231\231\231Yu@\217\302\365(\\\003q@\366(\\\217\302\371w@"
      }
    }
  }
}
node {
  name: "normalize_element/component_2"
  op: "Const"
  device: "/device:CPU:0"
  attr {
    key: "_output_shapes"
    value {
      list {
        shape {
          dim {
            size: 405
          }
        }
      }
    }
  }
  attr {
    key: "dtype"
    value {
      type: DT_INT64
    }
  }
  attr {
    key: "value"
    value {
      tensor {
        dtype: DT_INT64
        tensor_shape {
          dim {
            size: 405
          }
        }
        tensor_content: "\000\000\000\000\000\000\000\000\000\000\000\000\000\000\000\000\000\000\000\000\000\000\000\000\000\000\000\000\000\000\000\000\000\000\000\000\000\000\000\000\000\000\000\000\000\000\000\000\000\000\000\000\000\000\000\000\000\000\000\000\000\000\000\000\001\000\000\000\000\000\000\000\000\000\000\000\000\000\000\000\000\000\000\000\000\000\000\000\000\000\000\000\000\000\000\000\000\000\000\000\000\000\000\000\000\000\000\000\000\000\000\000\000\000\000\000\000\000\000\000\000\000\000\000\000\000\000\000\000\000\000\000\000\000\000\000\000\000\000\000\000\000\000\000\000\000\000\000\000\000\000\000\000\000\000\000\000\000\000\000\000\000\000\000\000\000\000\000\000\000\000\000\000\000\000\000\000\000\000\000\000\000\000\000\000\000\000\000\000\000\000\000\000\000\000\000\000\000\000\000\000\000\000\000\000\000\000\000\000\000\000\000\000\000\000\000\000\000\000\000\000\000\000\000\000\000\000\000\000\000\000\000\000\000\000\000\000\000\000\000\000\000\000\000\000\000\000\000\000\000\000\000\000\000\000\000\000\000\000\000\000\000\000\000\000\000\000\000\000\000\000\000\000\000\000\000\000\000\000\000\000\000\000\000\000\000\000\000\000\000\000\000\000\000\000\000\000\000\000\000\000\000\000\000\000\000\000\000\000\000\000\000\000\000\000\000\000\000\000\000\000\000\000\000\000\000\000\000\000\000\000\000\000\000\000\000\000\000\000\000\000\000\000\000\000\000\000\000\000\000\000\000\000\000\000\000\000\000\000\000\000\000\000\000\000\000\000\000\001\000\000\000\000\000\000\000\000\000\000\000\000\000\000\000\000\000\000\000\000\000\000\000\000\000\000\000\000\000\000\000\000\000\000\000\000\000\000\000\000\000\000\000\000\000\000\000\000\000\000\000\000\000\000\000\000\000\000\000\000\000\000\000\000\000\000\000\000\000\000\000\000\000\000\000\000\000\000\000\000\000\000\000\000\000\000\000\000\000\000\000\000\000\000\000\000\000\000\000\000\000\000\000\000\000\000\000\000\000\000\000\000\000\000\000\000\000\000\000\000\000\000\000\000\000\000\000\000\000\000\000\000\000\000\000\000\000\000\000\000\000\000\000\000\000\000\000\000\000\000\000\000\000\000\000\000\000\000\000\000\000\000\000\000\000\000\000\000\000\000\000\000\000\000\000\000\000\000\000\000\000\000\000\000\000\000\000\000\000\000\000\000\000\000\000\000\000\000\000\000\000\000\000\000\000\000\000\000\000\000\000\000\000\000\000\000\000\000\000\000\000\000\000\000\000\000\000\000\000\000\000\000\000\000\000\000\000\000\000\001\000\000\000\000\000\000\000\000\000\000\000\000\000\000\000\000\000\000\000\000\000\000\000\000\000\000\000\000\000\000\000\000\000\000\000\000\000\000\000\000\000\000\000\000\000\000\000\000\000\000\000\000\000\000\000\000\000\000\000\000\000\000\000\000\000\000\000\000\000\000\000\000\000\000\000\000\000\000\000\000\000\000\000\000\000\000\000\000\000\000\000\000\000\000\000\000\000\000\000\000\000\000\000\000\000\000\000\000\000\000\000\000\000\000\000\000\000\000\000\000\000\000\000\000\000\000\000\000\000\000\000\000\000\000\000\000\000\000\000\000\000\000\000\000\000\000\000\000\000\000\000\000\000\000\000\000\000\000\000\000\000\000\000\000\000\000\000\000\000\000\000\000\000\000\000\000\000\000\000\000\000\000\000\000\000\000\000\000\000\000\000\000\000\000\000\000\000\000\000\000\000\000\000\000\000\000\000\000\000\000\000\000\000\000\000\000\000\000\000\000\000\000\000\000\000\000\000\000\000\000\000\000\000\000\000\000\000\000\000\000\000\000\000\000\000\000\000\001\000\000\000\000\000\000\000\000\000\000\000\000\000\000\000\000\000\000\000\000\000\000\000\000\000\000\000\000\000\000\000\000\000\000\000\000\000\000\000\000\000\000\000\000\000\000\000\000\000\000\000\000\000\000\000\000\000\000\000\000\000\000\000\000\000\000\000\000\000\000\000\000\000\000\000\000\000\000\000\000\000\000\000\000\000\000\000\000\000\000\000\000\000\000\000\000\000\000\000\000\000\000\000\000\000\000\000\000\000\000\000\000\000\000\000\000\000\000\000\000\000\000\000\000\000\000\000\000\000\000\000\000\000\000\000\000\000\000\000\000\000\000\000\000\000\000\000\000\000\000\000\000\000\000\000\000\000\000\000\000\000\000\000\000\000\000\000\000\000\000\000\000\000\000\000\000\000\000\000\000\000\000\000\000\000\000\000\000\000\000\000\000\000\000\000\000\000\000\000\000\000\000\000\000\000\000\000\000\000\000\000\000\000\000\000\000\000\000\000\000\000\000\000\000\000\000\000\000\000\000\000\001\000\000\000\000\000\000\000\000\000\000\000\000\000\000\000\000\000\000\000\000\000\000\000\000\000\000\000\000\000\000\000\000\000\000\000\000\000\000\000\000\000\000\000\000\000\000\000\000\000\000\000\000\000\000\000\000\000\000\000\000\000\000\000\000\000\000\000\000\000\000\000\000\000\000\000\000\000\000\000\000\000\000\000\000\000\000\000\000\000\000\000\000\000\000\000\000\000\000\000\000\000\000\000\000\000\000\000\000\000\000\000\000\000\000\000\000\000\000\000\000\000\000\000\000\000\000\000\000\000\000\000\000\000\000\000\000\000\000\000\000\000\000\000\000\000\000\000\000\000\000\000\000\000\000\000\000\000\000\000\000\000\000\000\000\000\000\000\000\000\000\000\000\000\000\000\001\000\000\000\000\000\000\000\001\000\000\000\000\000\000\000\000\000\000\000\000\000\000\000\001\000\000\000\000\000\000\000\000\000\000\000\000\000\000\000\000\000\000\000\000\000\000\000\000\000\000\000\000\000\000\000\000\000\000\000\000\000\000\000\000\000\000\000\000\000\000\000\000\000\000\000\000\000\000\000\000\000\000\000\000\000\000\000\000\000\000\000\000\000\000\000\000\000\000\000\000\000\000\000\000\000\000\000\000\000\000\000\000\000\000\000\000\000\000\000\000\000\000\000\000\000\000\000\000\000\000\000\000\000\000\000\000\000\000\000\000\000\000\000\000\000\000\000\000\000\000\000\000\000\000\000\000\000\000\000\000\000\000\000\000\000\000\000\000\000\000\000\000\000\000\000\001\000\000\000\000\000\000\000\000\000\000\000\000\000\000\000\000\000\000\000\000\000\000\000\000\000\000\000\000\000\000\000\000\000\000\000\000\000\000\000\000\000\000\000\000\000\000\000\000\000\000\000\000\000\000\000\001\000\000\000\000\000\000\000\000\000\000\000\000\000\000\000\000\000\000\000\000\000\000\000\000\000\000\000\000\000\000\000\000\000\000\000\000\000\000\000\000\000\000\000\000\000\000\000\000\000\000\000\000\000\000\000\000\000\000\000\000\000\000\000\000\000\000\000\000\000\000\000\000\000\000\000\000\000\000\000\000\000\000\000\000\000\000\000\000\000\000\000\000\000\000\000\001\000\000\000\000\000\000\000\000\000\000\000\000\000\000\000\000\000\000\000\000\000\000\000\000\000\000\000\000\000\000\000\000\000\000\000\000\000\000\000\000\000\000\000\000\000\000\000\000\000\000\000\000\000\000\000\000\000\000\000\000\000\000\000\000\000\000\000\000\000\000\000\000\000\000\000\000\000\000\000\000\000\000\000\000\000\000\000\000\000\000\000\000\000\000\000\000\000\000\000\000\000\000\000\000\000\000\000\000\000\000\000\000\000\000\000\000\000\000\000\000\000\000\000\000\000\000\000\000\000\000\000\000\000\000\000\000\000\000\000\000\000\000\000\000\000\000\000\000\000\000\000\000\000\000\000\000\000\000\000\000\000\000\000\000\000\000\000\000\000\000\000\000\000\000\000\000\000\000\000\000\000\000\000\000\000\000\000\000\000\000\000\000\000\000\000\000\000\000\000\000\000\000\000\000\000\000\000\000\000\000\000\000\000\000\000\000\000\000\000\000\000\000\000\000\000\000\000\000\000\000\000\000\000\000\000\000\000\000\000\001\000\000\000\000\000\000\000\000\000\000\000\000\000\000\000\000\000\000\000\000\000\000\000\000\000\000\000\000\000\000\000\000\000\000\000\000\000\000\000\000\000\000\000\000\000\000\000\000\000\000\000\000\000\000\000\000\000\000\000\000\000\000\000\000\000\000\000\000\000\000\000\001\000\000\000\000\000\000\000\000\000\000\000\000\000\000\000\000\000\000\000\000\000\000\000\000\000\000\000\000\000\000\000\000\000\000\000\000\000\000\000\001\000\000\000\000\000\000\000\000\000\000\000\000\000\000\000\001\000\000\000\000\000\000\000\000\000\000\000\000\000\000\000\000\000\000\000\000\000\000\000\000\000\000\000\000\000\000\000\000\000\000\000\000\000\000\000\000\000\000\000\000\000\000\000\000\000\000\000\000\000\000\000\000\000\000\000\000\000\000\000\000\000\000\000\000\000\000\000\000\000\000\000\000\000\000\000\000\000\000\000\000\000\000\000\000\000\000\000\000\000\000\000\000\000\000\000\000\000\000\000\000\000\000\000\000\000\000\000\000\000\000\000\000\000\000\000\000\000\000\000\000\000\000\000\000\000\000\000\000\000\000\000\000\000\000\000\000\000\000\000\001\000\000\000\000\000\000\000\000\000\000\000\000\000\000\000\000\000\000\000\000\000\000\000\000\000\000\000\000\000\000\000\000\000\000\000\000\000\000\000\000\000\000\000\000\000\000\000\000\000\000\000\000\000\000\000\000\000\000\000\000\000\000\000\000\000\000\000\000\000\000\000\000\000\000\000\000\000\000\000\001\000\000\000\000\000\000\000\000\000\000\000\000\000\000\000\000\000\000\000\000\000\000\000\000\000\000\000\000\000\000\000\000\000\000\000\000\000\000\000\000\000\000\000\000\000\000\000\000\000\000\000\000\000\000\000\000\000\000\000\000\000\000\000\001\000\000\000\000\000\000\000\000\000\000\000\000\000\000\000\000\000\000\000\000\000\000\000\000\000\000\000\000\000\000\000\000\000\000\000\000\000\000\000\000\000\000\000\000\000\000\000\000\000\000\000\000\000\000\000\000\000\000\000\000\000\000\000\000\000\000\000\000\000\000\000\000\000\000\000\000\000\000\000\000\000\000\000\000\000\000\000\001\000\000\000\000\000\000\000\000\000\000\000\000\000\000\000\000\000\000\000\000\000\000\000\000\000\000\000\000\000\000\000\000\000\000\000\000\000\000\000\000\000\000\000\000\000\000\000\000\000\000\000\000\000\000\000\000\000\000\000\000\000\000\000\000\000\000\000\000\000\000\000\000\000\000\000\000\000\000\000\001\000\000\000\000\000\000\000\000\000\000\000\000\000\000\000\000\000\000\000\000\000\000\000\000\000\000\000\000\000\000\000\000\000\000\000\000\000\000\000\000\000\000\000\000\000\000\000\001\000\000\000\000\000\000\000\000\000\000\000\000\000\000\000\000\000\000\000\000\000\000\000\000\000\000\000\000\000\000\000\000\000\000\000\000\000\000\000\001\000\000\000\000\000\000\000\000\000\000\000\000\000\000\000\000\000\000\000\000\000\000\000\000\000\000\000\000\000\000\000\000\000\000\000\000\000\000\000\000\000\000\000\000\000\000\000\000\000\000\000\000\000\000\000\000\000\000\000\000\000\000\000\000\000\000\000\000\000\000\000\000\000\000\000\000\000\000\000\000\000\000\000\000\000\000\000\000\000\000\000\000\000\000\000\000\000\000\000\000\000\000\000\000\000\000\000\000\000\000\000\001\000\000\000\000\000\000\000\000\000\000\000\000\000\000\000\000\000\000\000\000\000\000\000\000\000\000\000\000\000\000\000\000\000\000\000\000\000\000\000\000\000\000\000\000\000\000\000\000\000\000\000\000\000\000\000\000\000\000\000\000\000\000\000\000\000\000\000\000\000\000\000\000\000\000\000\000\000\000\000\000\000\000\000\000\000\000\000\000\000\000\000\000\000\000\000\000\000\000\000\000\000\000\000\000\000\000\000\000\000\000\000\000\000\000\000\000\000\000\000\000\000\000\000\000\000\000\000\000\000\000\000\000\000\000\000\000\000\000\000\000\000\000\000\000\000\000\000\000\000\000\000\000\000\000\000\000\000\000\000\000\000\000\000\000\000\000\000\000\000\000\000\000\000\000\000\000\000\000\000\000\000\000\000\000\000\000\000\000\000\000\000\000\000\000\000\000\000\000\000\000\000\000\000\000\000\000\000\000\000\000\000\000\000\000\000\000\000\000\000\000\000\000\000\000\000\000\000\000\000\000\000\000\000\000\000\000\000\000\000\001\000\000\000\000\000\000\000\000\000\000\000\000\000\000\000\000\000\000\000\000\000\000\000\000\000\000\000\000\000\000\000\000\000\000\000\000\000\000\000\000\000\000\000\000\000\000\000\000\000\000\000\000\000\000\000\000\000\000\000\000\000\000\000\000\000\000\000\000\000\000\000\000\000\000\000\000\000\000\000\000\000\000\000\000\000\000\000\001\000\000\000\000\000\000\000\000\000\000\000\000\000\000\000\000\000\000\000\000\000\000\000\000\000\000\000\000\000\000\000\001\000\000\000\000\000\000\000\000\000\000\000\000\000\000\000\001\000\000\000\000\000\000\000\000\000\000\000\000\000\000\000\000\000\000\000\000\000\000\000\000\000\000\000\000\000\000\000\000\000\000\000\000\000\000\000\000\000\000\000\000\000\000\000\000\000\000\000\000\000\000\000\000\000\000\000\000\000\000\000\000\000\000\000\000\000\000\000\000\000\000\000\000\000\000\000\000\000\000\000\000\000\000\000\000\000\000\000\000\000\000\000\000\000\000\000\000\000\000\000\000\000\000\000\000\000\000\000\000\000\000\000\000\000\000\000\000\000\000\000\000\000\000\000\000\000\000\000\000\000\000\000\000\000\000\000\000\000\000\000\000\000\000\000\000\000\000\000\000\000\000\000\000\000\000\000\000\000\000\000\000\000\000\000\000\000\000\000\000\000\000\000\000\000\000\000\000\000\000\000\000\000\000\000\000\000\000\000\000\000\000\000\000\000\000\000\001\000\000\000\000\000\000\000\000\000\000\000\000\000\000\000\000\000\000\000\000\000\000\000\000\000\000\000\000\000\000\000\000\000\000\000\000\000\000\000\000\000\000\000\000\000\000\000"
      }
    }
  }
}
node {
  name: "normalize_element/component_3"
  op: "Const"
  device: "/device:CPU:0"
  attr {
    key: "_output_shapes"
    value {
      list {
        shape {
          dim {
            size: 405
          }
        }
      }
    }
  }
  attr {
    key: "dtype"
    value {
      type: DT_DOUBLE
    }
  }
  attr {
    key: "value"
    value {
      tensor {
        dtype: DT_DOUBLE
        tensor_shape {
          dim {
            size: 405
          }
        }
        tensor_content: "\033\323\023\226x@\251?\356_YiR\n\232?\014\032\372\'\270X\315?\300\347\207\021\302\243\255?\350\361{\233\376l\r@R\'\240\211\260\341\342?n4\200\267@\202\242??\313\363\340\356\254\365?\204\206\376\t.V\274?A\016J\230i\373\247?\242\271N#-\325\026@\232\217kC\3058\237?Hm\342\344~\207\302?@\237\310\223\244k\246?\345,\354i\207\277\320?\202sF\224\366\346\'@\372~j\274t\223.@?\000\251M\234\334\340?3\304\261.n\243\241?P6\345\n\357\362\002@|\270\344\270S:\320?Z\365\271\332\212=\001@\214\271k\t\371\240\327?j\207\277&k\324\325?\322\373\306\327\236Y\242?c\177\331=y\270/@\004[%X\034\316\371?\343\252\262\357\212\340\237?\362v\204\323\202\027\341?v\375\202\335\260M @\'1\010\254\034Z\264?\3500_^\200}\310?Q\024\350\023y\222\224?Dio\360\205\331#@jH\334c\351C\247?\206U\274\221y\344\321?\272\325s\322\373&\031@\314\356\311\303B\255\261?,e\031\342X\2674@1\010\254\034Z\304\026@\202\250\373\000\2446\261?\245\210\014\253x#\243?\010=\233U\237\253\343?4\235\235\014\216\222\031@\236\357\247\306Kw$@\344\024\035\311\345\237\'@\273,&6\037W\375?\2343\242\2647\270*@1\010\254\034Zd\007@\325\004Q\367\001H\315?\021p\010Uj\226\022@\201&\302\206\247W\272?Tt$\227\377\220\236?H\277}\0358g\002@X4\235\235\014\216\312?\n\334\272\233\247:\274?0L\246\nF\325#@\264\315\215\351\tK\351?\016\2760\231*\030\351?I\272f\362\3156\325??W[\261\277,&@>\350\331\254\372\\\255?\034\010\311\002&\260\036@\316\302\236v\370\373 @\234\242#\271\374\207\322?\325\347j+\366\227\255?)\350\366\222\306h\342?\300`7l[\224\231?\257Z\231\360K\375\264?T\336\216pZ\360\001@\261KTo\rl\323?0*\251\023\320d8@\336\223\207\205Z\223\r@\322\000\336\002\t\n\360?`\260\033\266-\312\300?\225\232=\320\n\214\006@d\222\221\263\260\'\032@Qf\203L2r\206?\261U\202\305\341\314\366?Uj\366@+0\264?2\311\310Y\330\323\324?l\317,\tPS\303?\350\331\254\372\\m\265?\212\216\344\362\037R&@\261U\202\305\341\314\257?\005\377[\311\216\215\260?\321y\215]\242\032\036@;\215\264T\336\216\310?w\241\271N#-\321?\267\234KqU\331\341?\353V\317I\357\033\257?RD\206U\274\221\343?\305\010\341\321\306\021\273?\321W\220f,\232\266?x\234\242#\271\324B@\303\330B\220\203\022\276?b\234\277\t\205\010\260?\276\331\346\306\364\204\245?\312\246\\\341].\324?\032\335A\354L\241\273?t$\227\377\220~(@;\215\264T\336\356#@\351&1\010\254\034\302?i\000o\201\004\305\303?\217\344\362\037\322\3170@Gw\020;S\350\254?\331\003\255\300\220\225!@\000:\314\227\027`\364?\275:\307\200\354\365\256?2ZGU\023D\275?\262\235\357\247\306K\341?\002Hm\342\344~\267?d#\020\257\353w\035@\205\0108\204*5\263?\3544\322Ry;\345?<\203\206\376\t.\266?\206\261\205 \007%\254?V\202\305\341\314\257\351?\336\375\361^\2652\241?\031\377>\343\302\201\342?\034\360\371a\204\360\260?-}\350\202\372\006#@\000\343\0314\364O\300?\213\340\177+\331\261\016@\307\021k\361)\000\246?\007\346\350\361{\233\316?\270\257\003\347\214(\265?\313\326\372\"\241-\247?W`\310\352V\317\301?\220\332\304\311\375\016\245?\225\361\3573.\034\310?{\240\025\030\262\272\331?q=\n\327\243p\235?\200\267@\202\342\'\'@\361\272~\301n\330\246?[\261\277\354\236<\254?\341\013\223\251\202\221\n@\261U\202\305\341\254\022@\004\342u\375\202\335\260?\274\226\220\017z>V@\323\244\024t{I\273?\315\222\0005\265l\341?\'\240\211\260\341\351\305?{\332\341\257\311\032\265?Xni5$\356\241?\217\307\014T\306\277\325?\371\240g\263\352s\305?\000\005\027+j\260\021@v\310\315p\003>\277?\347\343\332P1\316\267?\016\303G\304\224H\341?6T\214\3637\241\357?\327\206\212q\376&\344?_\2652\341\227\372\305?\204*5{\240\245#@\264\315\215\351\tK\234?aO;\37459\022@-!\037\364lV\275?j\366@+0d\301?*t^c\227\250\340?h\005\206\254n\365\264?\320,\tPS\313\013@\265\333.4\327i\310?\326\335<\325!\027\034@\233U\237\253\255\030(@\2201w-!\037\224?\022\245\275\301\027&\223?gDio\360\2457@\240\211\260\341\351\225\320?\316\245\270\252\354\273\242?\rq\254\213\333H\027@\215\321:\252\232 \320?\367\356\217\367\252\225\356?\367]\021\374o%\253?\365\333\327\201s&*@\212\223\373\035\212\002\311?)\\\217\302\365(\264?\027\267\321\000\336\202\002@\231d\344,\354i\367?\326\342S\000\214g\300?d#\020\257\353\027\332?\375M(D\300!\244?}\320\263Y\365\031,@k\016\020\314\321\343\247?\200\274W\255L\370\037@\212Y/\206r\242\305?\323\366\257\2544)\311?.x\321W\220f\314?\215\264T\336\216p\272?(D\300!T\251\261?R\325\004Q\367\001\270?Q\367\001Hm\002\023@\366]\021\374o%\323?]\376C\372\355\2333@g\270\001\237\037F\250?1%\222\350e4\033@\207\242@\237\310\223\363?\347\000\301\034=~\257?\347\005\330G\247\256\254?F\266\363\375\324\210 @_$\264\345\\\252\026@V\016-\262\235\3172@\261\21272\217\374\301??RD\206U\\\024@?\035\217\031\250\214\257?\005\377[\311\216\215\300?B>\350\331\254\372\254?\360P\024\350\023y\326?\237q\341@H\026\363?\202\250\373\000\2446\271?\035=~o\323\237\265?\226>tA}\213\r@p\231\323e1\261\261?D\377\004\027+j\344?H\371I\265O\007\003@\205|\320\263Y\365\301?9z\374\336\246?\303?\3578EGr\371\317?\215\356 v\246\320\271?MJA\267\2274\246?\334^\322\030\255c\r@\310\200\354\365\356\217\277?\371\203\201\347\336\303\305?D\372\355\353\3009\347?[_$\264\345\334\360?\023\355*\244\374\244\212?\211\265\370\024\000\343y?vq\033\r\340\3351@\232\323e1\261\371\300?\312\253s\014\310^\257?\220\275\336\375\361\336\032@\310$#gaO\303?Z\273\355Bs\235\246?\311v\276\237\032/\341?\004\342u\375\202\255\"@\200\202\213\0255\230\266?]\212\253\312\276+\322?\036\217\031\250\214\177\217?\222W\347\030\220\275\216?+\030\225\324\th\306?\214\333h\000o\201\372?\320\325V\354/[+@\345\355\010\247\005/\306?\313\204_\352\347M\370?<I\272f\362\315\374?\331Z_$\264\345\254?J\357\033_{f\315?\377\t.V\324`\312?\266\370\024\000\343\031\300?HP\374\030s\327,@#\241-\347R|\023@b\204\360h\343\010\003@g\233\033\323\023\226\270?\273\'\017\013\265\306\031@\0054\0216<\3158@\253\347\244\367\215\257\235?3\277\232\003\004S\026@\376e\367\344a\221I@\257\261KTo\r\254?X4\235\235\014\216\202?\201`\216\036\277\267\251?\035\376\232\254Q\017\261?\033\236^)\313\3609@k\324C4\272\343\020@g\270\001\237\037F\334?q\254\213\333h\340,@\241\241\177\202\213\025\323?\017\227\034wJ\007\303?\313\271\024W\225\235\035@\215\013\007B\262\200\251?\025\221a\025od\332??\343\302\201\220\034 @\313\370\367\031\027\016\274?\2201w-!\237\366?,H3\026Mg\313?\225+\274\313E|\365?9b->\005\300\304?c\326\213\241\234h\277?G\376`\340\271W\023@t\315\344\233mn\314?yX\2505\315\0139@\224j\237\216\307\014\330?\027\361\235\230\365b\300?)\221D/\243\230\003@\270\222\035\033\201x\265?\353s\265\025\373\013.@,`\002\267\356\346\251?}\263\315\215\351\t\313?\367\314\222\00055\366?\000o\201\004\305\217\261?[\323\274\343\024\r6@z\245,C\034\253%@\025\000\343\0314\364\343??RD\206U\274\350?\375j\016\020\314\321\243?\001\336\002\t\212\1772@\232%\001jj\331\212?\316N\006G\311K\027@\315\222\0005\265\354\026@\331=yX\250\0252@\217\337\333\364g?\320?\3122\304\261.bR@tA}\313\234\316\024@\314bb\363qm\362?\314bb\363qm\260?\376\324x\351&1\300?\210\205Z\323\274\303D@\275\030\312\211v\025\005@|Ic\264\216\252\334?)\320\'\362$\351\306?T\256\360.\027\361\305?\232\231\231\231\231\231\271?-\262\235\357\247\306\253?sh\221\355|?\275?k\324C4\272\303\025@\342@H\0260\201\253?jH\334c\351C\353?_\014\345D\273\n\305?\315;N\321\221\\\326?T\343\245\233\304 \240?\\\224\331 \223\214\326?\031\347oB!\002\350?M\241\363\032\273D\265?\331\231B\3475v\301?#\303*\336\310<\357?)?\251\366\351x\254?\017bg\n\235\327\300?\261U\202\305\341\314\313?\237v\370k\262f @2U0*\251\323+@\246\325\220\270\307r#@T\313\326\372\"\241\335?N\356w(\n\364\261?\354/\273\'\017\013\225?\302n\330\266(3\016@b\241\3264\357x,@,e\031\342X7&@G\254\305\247\000\310\"@\3745Y\243\036\242\261?\220,`\002\267\356\276?\272f\362\31567\302?\"\370\337Jvl\264?\273~\301n\330\266\300?Ve\337\025\301_\"@\305\224H\242\227Q\363?\320\263Y\365\271Z.@_\007\316\031Q\332\213?Dn\206\033\360\371\261?\266l\255/\022\332\316?\270\222\035\033\201x\215?\t3m\377\312J\243?z1\224\023\355*\022@?\035\217\031\250\214\014@\004s\364\370\275M\267?\326\305m4\200\337F@\241J\315\036h\005\246?\365\326\300V\t\026\313?\264\223\301Q\362\352\326?k`\253\004\213\303\325?r\304Z|\n\200\221?\223\214\234\205=\355\240?\325s\322\373\306\227\023@\224\301Q\362\352\034\303?#gaO;\374\245?0\330\r\333\026e\226?u\002\232\010\033\236\322?\241l\312\025\336\245\002@\354\273\"\370\337J\226?->\005\300x\006\362?3\254\342\215\314#\237?\264Y\365\271\332\252,@\267E\231\r2\311\314?\367\344a\241\3264\267?\336Y\273\355Bs\275?\206\346:\215\264T\306?9\276\366\314\222\000\275?\300\004n\335\315S\215?\316\337\204B\004\034\242?\264Y\365\271\332\252,@\226x@\331\224\013\021@R~R\355\323\361\270?\345\355\010\247\005\177 @\201[w\363T\007\364?\325\347j+\366W%@\255n\365\234\364\276\241?\232\r2\311\310Y\270?\333m\027\232\3534\222?\322tv28J\266?\177M\326\250\207h\352?\372\263\037)\"\303\306?\002\366\321\251+\337\005@_)\313\020\307\232)@5\007\010\346\350\361\233?S\226!\216uq\253?\023\355*\244\374\244\340?[\353\213\204\266\234\327?;\3745Y\243\236\032@\210c]\334F\003\345?J\265O\307c\006\252?v\345\263<\017\256\026@\003\354\243SW>\307?t\322\373\306\327\236\271?\215\234\205=\355\360\367?\303G\304\224H\002\037@c\271\245\325\220\270\267?"
      }
    }
  }
}
node {
  name: "normalize_element/component_4"
  op: "Const"
  device: "/device:CPU:0"
  attr {
    key: "_output_shapes"
    value {
      list {
        shape {
          dim {
            size: 405
          }
        }
      }
    }
  }
  attr {
    key: "dtype"
    value {
      type: DT_DOUBLE
    }
  }
  attr {
    key: "value"
    value {
      tensor {
        dtype: DT_DOUBLE
        tensor_shape {
          dim {
            size: 405
          }
        }
        tensor_content: "g\325\347j+v\t@=\233U\237\253\355\026@\031s\327\022\362\301\026@\313\241E\266\363\375\031@\300\354\236<,\324\000@\346\256%\344\203\236\002@\326\305m4\200w\024@33333\263\020@\223\251\202QI\035\007@\314]K\310\007\275\010@e\252`TR\247\n@\315;N\321\221\334\031@P\374\030s\327\022\006@\031\004V\016-r\032@y\351&1\010\254\006@q\033\r\340-\220\364?\024?\306\334\265\204\365?\326V\354/\273\'\007@\024\256G\341z\024\031@\345\362\037\322o_\367?\217\302\365(\\\217\017@N\321\221\\\376C\370?\341\013\223\251\202\321\014@\030\225\324\th\342\022@\031\004V\016-r\032@\313\020\307\272\270\215\376?\243\001\274\005\022\024\016@\202sF\224\366\006 @\256\330_vO\036\001@J{\203/L\246\373?\226\262\014q\254k%@6\315;N\321\321\037@F\266\363\375\324x\024@/\335$\006\201\225\001@t$\227\377\220~\027@\313\020\307\272\270\r\003@\372~j\274t\223\000@\253>W[\261?\030@}\256\266b\177\331\362?Y\027\267\321\000^\014@\353\3426\032\300\333\024@\023\362A\317f\325\031@\314\356\311\303B-\n@\331\316\367S\343\245\001@w\276\237\032/]\001@Nb\020X9\264\374?\336\223\207\205ZS\000@\3019#J{\203\374?\277}\0358gD\002@\017\2343\242\264\267\005@\245N@\023aC\004@1\010\254\034Z$\034@\253>W[\261?\030@\315\314\314\314\314\314\000@\232\010\033\236^)\375?\364\375\324x\351\346\034@\304\261.n\243\001\370?\310\007=\233U\037\005@\271\215\006\360\026\010\021@e\031\342X\0277\r@\347\214(\355\r\276\375?9\326\305m4\300\021@\030\225\324\th\"\372?]\376C\372\355k\000@33333\263\014@o\022\203\300\312\241\006@0\273\'\017\013\265\016@\2505\315;N\021\031@\373\313\356\311\303\002\026@\307K7\211A`\003@\'\240\211\260\341\251\025@(\017\013\265\246y\367?(~\214\271k\t\374?\333\371~j\274\364\020@B>\350\331\254\372\000@\206\311T\301\250d\020@\314]K\310\007=\363?B>\350\331\254:\035@7\032\300[ A\374?\326\305m4\200w\024@\000\000\000\000\000\000\375?B>\350\331\254\372\005@\243\222:\001MD\022@V}\256\266b\377\000@\275R\226!\216\225!@\344\203\236\315\252O\037@{\024\256G\341z\001@\'\240\211\260\341\251\025@\025\035\311\345?$\007@mV}\256\266\342\000@\327\243p=\nW\001@7\211A`\345\320\374?\210\205Z\323\274\343\375?\313\241E\266\363=\026@\221~\373:p\316\375?G\003x\013$\350\030@\300\354\236<,\324\003@O@\023a\303S\r@\326V\354/\273\'\007@b\241\3264\3578\006@g\325\347j+\366\377?\235\200&\302\206\247\377?\340\276\016\2343\342\026@\212\037c\356ZB\037@\2505\315;N\321\366?\221~\373:p\016\024@5^\272I\014\202\000@\274\005\022\024?\306\374?\224\207\205Z\323<\n@E\330\360\364J\331\006@`\345\320\"\333\371\006@\010=\233U\237+\005@\2343\242\2647\370\376?\t\033\236^)\313\010@\216\006\360\026HP\376?\263{\362\260P\353\031@\253>W[\261?\023@\254\034Zd;_\016@\320\263Y\365\271\232\025@\345\362\037\322o_\003@\353\3426\032\300\333\024@d]\334F\003\370\003@\340\276\016\2343\342\026@w\276\237\032/]\002@0*\251\023\320D\035@KY\2068\326E\003@\373\313\356\311\303\002\026@\315\314\314\314\314L\002@0*\251\023\320\304\004@_\007\316\031Q\232\025@\327\022\362A\317f\024@\303\365(\\\217B\014@O@\023a\303S\r@R\270\036\205\353Q\374?_\007\316\031Q\232\025@J\014\002+\207\026\020@0L\246\nF%\365?\367u\340\234\021\245\004@!\260rh\221\355\005@D\213l\347\373\251\366?\316\210\322\336\340+%@\373\\m\305\376\262\372?\343\245\233\304 \260\001@\246\nF%u\302\030@\326\305m4\200w\024@#\333\371~j\034 @\232\010\033\236^)\022@\373:p\316\210R\004@g\325\347j+\366\013@\340-\220\240\370\261\000@\204\rO\257\224\345\000@\032Q\332\033|a\020@\024\256G\341z\324\022@\240\032/\335$F\033@\356|?5^\272\365?\320\263Y\365\271\232\025@\344\203\236\315\252\317\371?\327\243p=\nW\017@\024\320D\330\360\364\020@d;\337O\215\227\020@g\325\347j+\366\013@(\017\013\265\246y\376?u\223\030\004VN\037@<N\321\221\\\376\375?\200H\277}\0358\377?=\233U\237\253-\"@\374\030s\327\022\022!@\005\305\2171w-\366?\"\375\366u\340\234\374?_\007\316\031Q\232\025@\357\311\303B\255i\006@\317f\325\347jk\021@\216\006\360\026H\320\021@7\211A`\345P\013@\273\270\215\006\360\226\006@.\220\240\3701&\025@;\001M\204\rO\016@@\244\337\276\016\034\003@\177\373:p\316\210\377?\313\241E\266\363\375\031@\374\251\361\322Mb\010@[\261\277\354\236\274\010@q=\n\327\243p\370?#\333\371~j<\035@+\366\227\335\223\207\370?\245,C\034\353\342\377?#\333\371~j\034 @\236\357\247\306Kw\021@\356|?5^\272\033@\000o\201\004\305\017\002@\313\020\307\272\270\315\025@?\306\334\265\204|\003@\236\357\247\306K\267\021@\310\230\273\226\220\017\365?\n\327\243p=\n\004@=\n\327\243p\275\005@(~\214\271k\t\376?\253>W[\261?\023@\325\347j+\366\227\t@P\374\030s\327\022\362?\231*\030\225\324\t\000@\006\022\024?\306\334\370?q\033\r\340-\220\017@\374\030s\327\022\362\002@\202sF\224\366\006 @HP\374\030s\327\027@\035\311\345?\244_\013@\030\225\324\th\342\022@^\272I\014\002+\002@\351\267\257\003\347\014\000@\314\177H\277}\235\005@(~\214\271k\211\004@\263{\362\260P\353\031@\360\026HP\374\330\021@\230n\022\203\300\312\r@\365JY\2068\226\035@xz\245,C\034\377?\212\260\341\351\225\262\372?\354Q\270\036\205k\005@n4\200\267@B\033@\254\213\333h\000\357\017@O@\023a\303\323\002@\256\330_vO^\032@\254\034Zd;_\016@t$\227\377\220\376\021@\327\022\362A\317&\034@\\\217\302\365(\\\020@\005\305\2171w-\366?\t\212\037c\356\332\000@\210\364\333\327\201s\023@\202\342\307\230\273\226\002@\030\225\324\th\"\375?\344\203\236\315\252O\037@\254\034Zd;_\r@\222\313\177H\277}\377?.\220\240\3701&\025@\030\225\324\th\342\022@\016\2760\231*X\031@\n\327\243p=\212\027@\3274\3578E\307\016@\027\331\316\367S\343\371?\305\2171w-!\375?\313\020\307\272\270\r\003@\262\235\357\247\306K\001@c\356ZB>h\003@\254\255\330_vO\020@\317f\325\347jk\021@6\315;N\321\321\037@\243\222:\001MD\022@\276\301\027&S\005\000@\032\300[ Aq\002@\277\016\2343\242\264\366?\031\342X\027\267\021\021@|\362\260Pk\232\001@\221\017z6\253>\373?\275R\226!\216\225!@I\235\200&\302\206\002@\317\367S\343\245\233\366?\366(\\\217\302\365\n@B>\350\331\254:\035@U0*\251\023\220\032@\036\026jM\363\016\t@\\\217\302\365(\\\372?(\017\013\265\246y\376?9\326\305m4\000\013@\246\233\304 \260r\367?9\326\305m4\000\013@b\241\3264\3578\006@\365\333\327\201sF\367?n4\200\267@B\033@D\372\355\353\300\271\t@\000\221~\373:p\003@\261Pk\232w\034\003@Z\365\271\332\212\375\373?\365JY\2068\226\035@=,\324\232\346\035\374?\236\357\247\306K\267\021@\340\276\016\2343\342\026@Gr\371\017\3517\t@\374\251\361\322Mb\004@$(~\214\271k\371?R\270\036\205\353Q\r@\330\201sF\224v\003@\232\231\231\231\231\031\002@\337\340\013\223\251\002\022@X\2505\315;\316\000@u\002\232\010\033\036\023@\243\001\274\005\022T\030@\354Q\270\036\205\353\017@g\325\347j+\366\013@$\271\374\207\364\333\375?\351&1\010\254\034\375?\314\356\311\303B-\n@\375\366u\340\234\321\021@0*\251\023\320D\035@\376\324x\351&1\362?\206\311T\301\250d!@\242\2647\370\302d\013@\233\346\035\247\350H\013@\t\212\037c\356Z\375?{\024\256G\341z\027@HP\374\030s\327\374?\271\215\006\360\026\310\005@#J{\203/L\016@\213\375e\367\344\341\n@\352\225\262\014q\354\037@Gr\371\017\351\267\371?\326V\354/\273\'\004@e\031\342X\0277\r@O\257\224e\210c\006@\327\022\362A\317f\024@\326\305m4\200\367\025@\n\327\243p=\212\n@+\030\225\324\t\350\n@HP\374\030s\327\002@HP\374\030s\327\027@\224\366\006_\230\014\020@u\223\030\004VN\037@R\270\036\205\353\321\010@[\323\274\343\024\235\036@\270@\202\342\307\230\375?)\355\r\2760\231\021@H\277}\0358\347\007@q\033\r\340-\220\017@\370S\343\245\233\304\002@\344\203\236\315\252O\037@\020z6\253>\327\005@\361\364JY\2068\r@yX\2505\315;\006@\236^)\313\020\307\001@\276\301\027&S\205\000@\254\034Zd;_\r@\312\303B\255i^\013@\216uq\033\r`\"@F\266\363\375\324\370\006@:#J{\203/\371?Dio\360\205\311\362?\301\250\244N@\023\375?*:\222\313\177\310\004@g\325\347j+\366\013@Zd;\337O\r\002@\344\203\236\315\252\217\020@R\270\036\205\353\321\003@\014\223\251\202QI\371?c\356ZB>h\003@\033\r\340-\220\240\376?\363\037\322o_G\035@8gDiop\014@\'\240\211\260\341\251\025@p\316\210\322\336\340\030@#\333\371~j<\035@0L\246\nF%\004@y\351&1\010,\007@\355\236<,\324\232\005@\234\242#\271\374\207\372?\316\210\322\336\340+%@\017\2343\242\264\267\005@\242\2647\370\302\344\006@\246\233\304 \260\362\000@T\343\245\233\304@(@\253>W[\261?\023@R\270\036\205\353Q\365?\327\022\362A\317\346\034@\354Q\270\036\205\353\014@p\316\210\322\336\340\030@\'\302\206\247W\312\371?\267b\177\331=y\370?\024\256G\341z\024\031@\245N@\023a\303\371?\366(\\\217\302u\026@\200H\277}\0358\377?\302\027&S\005c\031@\327\243p=\nW\017@g\325\347j+\366\013@\243\222:\001M\004\017@\016\2760\231*X\031@J{\203/L\246 @\326\305m4\200\367\025@;\337O\215\227n\371?\030&S\005\243\022\004@gDio\360\005\013@\2201w-!\237\003@\303\323+e\031b\016@\221~\373:p\316\377?U0*\251\023\220\032@\337\340\013\223\251\002\022@[\323\274\343\024\235\036@\351&1\010\254\\\020@\376e\367\344a\241\000@\373\\m\305\3762\003@~\0358gDi\370?\370\302d\252`T\376?\256\330_vO\336\023@n4\200\267@B\033@\002+\207\026\331N\002@\000\221~\373:\320!@\216uq\033\r\340\005@\240\211\260\341\351\025\000@\023\362A\317f\325\031@0\273\'\017\013\265\365?\232\010\033\236^)\022@-\262\235\357\247\306\006@\201\004\305\2171w\371?\026\373\313\356\311C\006@\326\305m4\200\367\025@"
      }
    }
  }
}
node {
  name: "normalize_element/component_5"
  op: "Const"
  device: "/device:CPU:0"
  attr {
    key: "_output_shapes"
    value {
      list {
        shape {
          dim {
            size: 405
          }
        }
      }
    }
  }
  attr {
    key: "dtype"
    value {
      type: DT_DOUBLE
    }
  }
  attr {
    key: "value"
    value {
      tensor {
        dtype: DT_DOUBLE
        tensor_shape {
          dim {
            size: 405
          }
        }
        tensor_content: "q=\n\327\243p\001@=\n\327\243p=\016@\244p=\n\327\243\033@H\341z\024\256G\030@\232\231\231\231\231\0312@\244p=\n\327\3435@\315\314\314\314\314\314\023@H\341z\024\256G @H\341z\024\256\307+@H\341z\024\256G\013@\232\231\231\231\231\0312@=\n\327\243p=\016@\205\353Q\270\036\005$@\366(\\\217\302\365\n@\315\314\314\314\314\314#@\232\231\231\231\231\0312@\232\231\231\231\231\0312@\315\314\314\314\314\314\030@=\n\327\243p=\000@\024\256G\341z\2243@\315\314\314\314\314\314#@\024\256G\341z\2243@\315\314\314\314\314\314#@\205\353Q\270\036\205\035@\366(\\\217\302\365\n@\232\231\231\231\231\0312@H\341z\024\256G @\217\302\365(\\\217\021@\303\365(\\\217\302\017@\232\231\231\231\231\0312@\n\327\243p=\n\373?q=\n\327\243p\027@q=\n\327\243p\005@\232\231\231\231\231\0312@\354Q\270\036\205\353\t@\341z\024\256Ga#@\232\231\231\231\231\0312@q=\n\327\243p\001@\232\231\231\231\231\0312@\232\231\231\231\231\0312@\354Q\270\036\205\353\t@\303\365(\\\217\302\024@\315\314\314\314\314\314\030@\232\231\231\231\231\0312@\232\231\231\231\231\0312@\232\231\231\231\231\0312@\024\256G\341z\2243@\232\231\231\231\231\0312@\024\256G\341z\2243@\037\205\353Q\270\036!@\232\231\231\231\231\0312@\270\036\205\353Q\270\023@q=\n\327\243p\001@\024\256G\341z\2243@=\n\327\243p\275;@\205\353Q\270\036\205\024@\232\231\231\231\231\0312@\315\314\314\314\314\314#@H\341z\024\256G @\315\314\314\314\314\314\030@\232\231\231\231\231\0312@\366(\\\217\302\365\021@\232\231\231\231\231\0312@\232\231\231\231\231\0312@\256G\341z\024.%@\256G\341z\024\256\003@\315\314\314\314\314\314\030@=\n\327\243p=\376?\327\243p=\n\327+@\024\256G\341z\2243@\205\353Q\270\036\205\035@\232\231\231\231\231\0312@\232\231\231\231\231\0312@H\341z\024\256G @\037\205\353Q\270\036!@\232\231\231\231\231\0312@\232\231\231\231\231\0312@\000\000\000\000\000\000\002@\024\256G\341z\2243@\315\314\314\314\314\314\023@\244p=\n\327\3435@\205\353Q\270\036\005$@\205\353Q\270\036\205\013@\232\231\231\231\231\0312@\000\000\000\000\000\000\364?\354Q\270\036\205\353\001@\232\231\231\231\231\0312@\205\353Q\270\036\205\035@\341z\024\256Ga#@\244p=\n\327\3435@\\\217\302\365(\334\'@\303\365(\\\217\302\017@=\n\327\243p\275;@{\024\256G\341z\037@\232\231\231\231\231\0312@{\024\256G\341z\037@\\\217\302\365(\334\'@\024\256G\341z\024.@\315\314\314\314\314\314\030@\037\205\353Q\270\036!@\232\231\231\231\231\0312@\232\231\231\231\231\0312@\244p=\n\327\243\033@\205\353Q\270\036\205\024@\232\231\231\231\231\0312@)\\\217\302\365\250)@\232\231\231\231\231\0312@\024\256G\341z\2243@\256G\341z\024\256\003@\037\205\353Q\270\036!@\303\365(\\\217\302\017@333333\020@\232\231\231\231\231\0312@q=\n\327\243p\001@\303\365(\\\217\302\017@\205\353Q\270\036\205\013@\303\365(\\\217\302\024@H\341z\024\256G @\232\231\231\231\231\231\007@\303\365(\\\217\302\017@\354Q\270\036\205\353\t@\232\231\231\231\231\0312@\244p=\n\327\243\033@\232\231\231\231\231\0312@H\341z\024\256G\025@\341z\024\256Ga#@\327\243p=\n\327+@\\\217\302\365(\334\'@333333\020@q=\n\327\243p\023@\244p=\n\327\243\033@\315\314\314\314\314\314#@\024\256G\341z\024.@\232\231\231\231\231\0312@q=\n\327\243p\023@q=\n\327\243p\001@\024\256G\341z\2243@\232\231\231\231\231\0312@\256G\341z\024\256\003@\232\231\231\231\231\0312@\217\302\365(\\\217\376?\244p=\n\327\3435@\037\205\353Q\270\036!@\270\036\205\353Q\270\023@\315\314\314\314\314\314\023@q=\n\327\243p\027@\205\353Q\270\036\205\035@\232\231\231\231\231\0312@\037\205\353Q\270\036\007@fffff\2469@\303\365(\\\217\302\017@H\341z\024\256G @H\341z\024\256G @\205\353Q\270\036\205\024@\232\231\231\231\231\0312@\232\231\231\231\231\231\007@\232\231\231\231\231\0312@\327\243p=\n\327\033@\256G\341z\024.%@\315\314\314\314\314\314\030@\037\205\353Q\270\036\007@\232\231\231\231\231\0312@q=\n\327\243p\027@\232\231\231\231\231\0312@\232\231\231\231\231\0312@)\\\217\302\365(\374?\232\231\231\231\231\231\020@\232\231\231\231\231\0312@\244p=\n\327\3435@q=\n\327\243p\023@\232\231\231\231\231\0312@\256G\341z\024.%@H\341z\024\256G @H\341z\024\256G\013@\232\231\231\231\231\0312@\037\205\353Q\270\236%@\205\353Q\270\036\205\013@\024\256G\341z\2243@\024\256G\341z\2243@H\341z\024\256G\030@\315\314\314\314\314\314\030@H\341z\024\256G\013@\232\231\231\231\231\0312@R\270\036\205\353Q\370?\232\231\231\231\231\0312@fffff\2469@q=\n\327\243p\027@\327\243p=\n\327\033@\205\353Q\270\036\205\024@fffff\2469@{\024\256G\341z\037@\232\231\231\231\231\0312@\327\243p=\n\327\033@\232\231\231\231\231\0312@\\\217\302\365(\334\'@\232\231\231\231\231\0312@\024\256G\341z\2243@\303\365(\\\217\302\024@\256G\341z\024\256\003@\232\231\231\231\231\0312@\232\231\231\231\231\0312@\232\231\231\231\231\0312@\256G\341z\024.%@\232\231\231\231\231\0312@\217\302\365(\\\217\021@\327\243p=\n\327+@H\341z\024\256G\013@\205\353Q\270\036\205\035@\244p=\n\327\3435@fffff\2469@333333\020@\232\231\231\231\231\0312@\205\353Q\270\036\205\013@H\341z\024\256G @\232\231\231\231\231\0312@q=\n\327\243p\027@fffff\2469@\244p=\n\327\3435@\205\353Q\270\036\005$@\217\302\365(\\\217\026@\232\231\231\231\231\0312@\205\353Q\270\036\005$@{\024\256G\341z\037@H\341z\024\256G @H\341z\024\256G @R\270\036\205\353Q\370?{\024\256G\341z\002@\232\231\231\231\231\0312@\037\205\353Q\270\036!@\244p=\n\327\243\031@\232\231\231\231\231\0312@=\n\327\243p\275;@\354Q\270\036\205\353\001@\315\314\314\314\314\314\030@\232\231\231\231\231\0312@\037\205\353Q\270\236%@\205\353Q\270\036\205\035@\000\000\000\000\000\000\016@\\\217\302\365(\\\363?\327\243p=\n\327\027@\024\256G\341z\2243@\232\231\231\231\231\0312@\341z\024\256Ga#@\024\256G\341z\2243@\024\256G\341z\2243@\244p=\n\327\243\031@\256G\341z\024.%@q=\n\327\243p\027@\205\353Q\270\036\205\013@\232\231\231\231\231\0312@\232\231\231\231\231\0312@\024\256G\341z\2243@\244p=\n\327\243\031@\232\231\231\231\231\0312@\232\231\231\231\231\0312@\000\000\000\000\000\000\364?\232\231\231\231\231\0312@\232\231\231\231\231\0312@q=\n\327\243p\001@\303\365(\\\217\302\007@=\n\327\243p=\030@333333\020@\232\231\231\231\231\0312@\232\231\231\231\231\0312@\315\314\314\314\314\314\030@\232\231\231\231\231\0312@\315\314\314\314\314\314\030@\037\205\353Q\270\036!@\232\231\231\231\231\0312@\217\302\365(\\\217\026@\315\314\314\314\314\314\030@\232\231\231\231\231\0312@\\\217\302\365(\334\'@\024\256G\341z\2243@q=\n\327\243p\027@\024\256G\341z\2243@\327\243p=\n\327\033@\244p=\n\327\243\033@\232\231\231\231\231\0312@\205\353Q\270\036\005$@\232\231\231\231\231\0312@\256G\341z\024.%@\037\205\353Q\270\036!@\024\256G\341z\2243@)\\\217\302\365\250)@\232\231\231\231\231\0312@\366(\\\217\302\365\021@{\024\256G\341z\037@H\341z\024\256G @\037\205\353Q\270\036\007@\232\231\231\231\231\0312@\232\231\231\231\231\0312@\315\314\314\314\314\314\030@H\341z\024\256G @H\341z\024\256G\025@\232\231\231\231\231\0312@\205\353Q\270\036\205\363?\232\231\231\231\231\0312@\232\231\231\231\231\0312@\232\231\231\231\231\0312@\244p=\n\327\243\033@\232\231\231\231\231\0312@\232\231\231\231\231\0312@H\341z\024\256G @\327\243p=\n\327\027@\205\353Q\270\036\205\024@\232\231\231\231\231\0312@\315\314\314\314\314\314#@\315\314\314\314\314\314\030@\341z\024\256Ga#@\244p=\n\327\243\033@\\\217\302\365(\\\030@333333\020@H\341z\024\256\307+@\232\231\231\231\231\0312@\327\243p=\n\327+@H\341z\024\256G @q=\n\327\243p\027@\315\314\314\314\314\314#@\205\353Q\270\036\205\367?\244p=\n\327\3435@H\341z\024\256G @\256G\341z\024\256\003@\256G\341z\024.%@\244p=\n\327\3435@\354Q\270\036\205\353\001@\205\353Q\270\036\005$@\256G\341z\024.%@\232\231\231\231\231\0312@\232\231\231\231\231\0312@\232\231\231\231\231\0312@\315\314\314\314\314\314\030@H\341z\024\256\307+@\256G\341z\024\256\347?\232\231\231\231\231\0312@\232\231\231\231\231\0312@\232\231\231\231\231\0312@\232\231\231\231\231\0312@\256G\341z\024\256\003@\037\205\353Q\270\036\007@\205\353Q\270\036\005$@\244p=\n\327\243\031@\205\353Q\270\036\005$@\232\231\231\231\231\0312@\024\256G\341z\2243@\232\231\231\231\231\0312@\000\000\000\000\000\000\020@333333\020@\205\353Q\270\036\205\035@q=\n\327\243p\007@R\270\036\205\353Q\370?\232\231\231\231\231\0312@\232\231\231\231\231\0312@\256G\341z\024\256\003@\232\231\231\231\231\0312@\217\302\365(\\\217\376?\037\205\353Q\270\036!@\315\314\314\314\314\314\030@\244p=\n\327\3435@)\\\217\302\365(\000@\303\365(\\\217\302\024@\232\231\231\231\231\0312@\205\353Q\270\036\205\024@\024\256G\341z\024.@q=\n\327\243p\007@\244p=\n\327\3435@\024\256G\341z\2243@=\n\327\243p=\000@\024\256G\341z\2243@\303\365(\\\217\302\024@\232\231\231\231\231\0312@{\024\256G\341z\037@\327\243p=\n\327\033@\037\205\353Q\270\036\007@\256G\341z\024.%@\270\036\205\353Q\270\023@\037\205\353Q\270\036\365?\\\217\302\365(\\\030@\232\231\231\231\231\0312@\232\231\231\231\231\0312@\327\243p=\n\327\027@\232\231\231\231\231\0312@H\341z\024\256G @\232\231\231\231\231\0312@=\n\327\243p=\030@)\\\217\302\365\250)@\205\353Q\270\036\205\367?)\\\217\302\365\250)@\303\365(\\\217\302\017@\341z\024\256Ga#@\024\256G\341z\2243@\232\231\231\231\231\0312@H\341z\024\256G\034@\217\302\365(\\\217\026@\303\365(\\\217\302\017@q=\n\327\243p\027@\232\231\231\231\231\0312@\303\365(\\\217\302\017@\303\365(\\\217\302\024@\232\231\231\231\231\0312@\205\353Q\270\036\205\035@\256G\341z\024\256\003@\024\256G\341z\2243@\232\231\231\231\231\0312@\\\217\302\365(\\\030@"
      }
    }
  }
}
node {
  name: "normalize_element/component_6"
  op: "Const"
  device: "/device:CPU:0"
  attr {
    key: "_output_shapes"
    value {
      list {
        shape {
          dim {
            size: 405
          }
        }
      }
    }
  }
  attr {
    key: "dtype"
    value {
      type: DT_DOUBLE
    }
  }
  attr {
    key: "value"
    value {
      tensor {
        dtype: DT_DOUBLE
        tensor_shape {
          dim {
            size: 405
          }
        }
        tensor_content: "\037\205\353Q\270\036\036@\270\036\205\353Q\270\034@\315\314\314\314\314\3142@333333 @\341z\024\256Ga$@=\n\327\243p=&@\315\314\314\314\314\314\022@\024\256G\341z\024*@\354Q\270\036\205\3531@\037\205\353Q\270\236!@\366(\\\217\302\365\036@q=\n\327\243p\022@\270\036\205\353Q8+@{\024\256G\341z$@q=\n\327\243p\'@\303\365(\\\217B(@=\n\327\243p=7@\205\353Q\270\036\205\022@\270\036\205\353Q\270\035@H\341z\024\256\207=@\000\000\000\000\000\000\'@fffff\2460@\217\302\365(\\\217\"@{\024\256G\341z\030@\256G\341z\024\256\022@\244p=\n\327c8@\327\243p=\nW4@\217\302\365(\\\017%@\n\327\243p=\n\035@\232\231\231\231\231\3314@\366(\\\217\302\365\025@\366(\\\217\302u2@\n\327\243p=\n\007@q=\n\327\243p0@\256G\341z\024.\"@\256G\341z\024.+@\n\327\243p=\3121@R\270\036\205\353Q\025@\327\243p=\nW7@\366(\\\217\302\365-@\\\217\302\365(\\\035@\000\000\000\000\000\000\033@ffffff\036@\232\231\231\231\231\0318@H\341z\024\256\0072@=\n\327\243p\2756@\270\036\205\353Q\270\376?\232\231\231\231\231Y0@\037\205\353Q\270\236#@\303\365(\\\217B%@R\270\036\205\353Q\'@q=\n\327\243p&@\327\243p=\n\327\024@333333&@\256G\341z\024\256=@\354Q\270\036\205\353\032@\270\036\205\353Q\370=@\354Q\270\036\205\353\027@\327\243p=\nW-@\232\231\231\231\231\231\017@\n\327\243p=\n.@\037\205\353Q\270\036\032@\354Q\270\036\205\3533@\244p=\n\327\2431@\315\314\314\314\314\214=@)\\\217\302\365(\024@\303\365(\\\217\302\003@\315\314\314\314\314L!@\315\314\314\314\314\314$@H\341z\024\256G\'@\232\231\231\231\231\231\030@H\341z\024\256G<@\000\000\000\000\000\000,@\366(\\\217\302\365\'@\256G\341z\024.,@\327\243p=\n\327$@\256G\341z\024\256\007@\366(\\\217\302u @\217\302\365(\\\217\035@{\024\256G\341z\014@H\341z\024\256\307.@\232\231\231\231\231\231$@\217\302\365(\\\217\025@\205\353Q\270\036E7@\354Q\270\036\205\353\027@\341z\024\256G\341\023@\217\302\365(\\O3@R\270\036\205\353Q\024@333333,@\366(\\\217\302\3650@\217\302\365(\\\217\026@{\024\256G\341z\024@R\270\036\205\353\0212@\\\217\302\365(\334(@\n\327\243p=\n-@\n\327\243p=\212*@\327\243p=\nW#@R\270\036\205\353Q @\217\302\365(\\\217\020@\000\000\000\000\000\000*@\341z\024\256Ga/@\232\231\231\231\231\3312@=\n\327\243p=\027@q=\n\327\243p\033@\217\302\365(\\\317>@\256G\341z\024\256(@)\\\217\302\365(1@\000\000\000\000\000\000\026@\315\314\314\314\314L*@\256G\341z\024\256\036@H\341z\024\256G\t@\024\256G\341z\024\"@\205\353Q\270\036\2055@\341z\024\256G\341\031@)\\\217\302\365(\037@\366(\\\217\302\365\006@{\024\256G\341z#@\341z\024\256Ga\'@\256G\341z\024\256\377?\303\365(\\\217\302\035@q=\n\327\243\360#@\366(\\\217\302\2652@\\\217\302\365(\\\023@\341z\024\256Ga,@\205\353Q\270\036\005#@\327\243p=\n\327)@)\\\217\302\365(!@)\\\217\302\365(\"@\341z\024\256Ga-@)\\\217\302\365(\025@\315\314\314\314\314L,@\270\036\205\353Q\270$@\327\243p=\n\327\030@\256G\341z\024\2569@\341z\024\256G\341\034@\270\036\205\353Q\270\033@R\270\036\205\353\321:@\303\365(\\\217\0023@=\n\327\243p=\036@\366(\\\217\30251@H\341z\024\256G\026@\366(\\\217\302u2@)\\\217\302\365\2502@q=\n\327\243p\031@\244p=\n\327\243\n@R\270\036\205\353Q\"@\315\314\314\314\314\314\034@R\270\036\205\353Q5@\232\231\231\231\231\231\032@\256G\341z\024\3561@\256G\341z\024.#@\341z\024\256G\3413@\205\353Q\270\036\205 @\341z\024\256G\341,@=\n\327\243p=5@H\341z\024\256G\021@{\024\256G\341z\034@\354Q\270\036\205\353\036@R\270\036\205\353Q-@\024\256G\341z\024#@\217\302\365(\\\217\014@)\\\217\302\365(\025@=\n\327\243p=\032@ffffff/@333333,@\\\217\302\365(\334)@q=\n\327\243p\031@q=\n\327\243\2607@q=\n\327\24301@\341z\024\256G\341\032@\024\256G\341z\224$@\217\302\365(\\\0172@H\341z\024\256G1@\315\314\314\314\314\314\026@\205\353Q\270\036\205-@)\\\217\302\365(\036@\270\036\205\353Q\270\032@\217\302\365(\\\017(@\256G\341z\024\256\373?\024\256G\341z\224!@\366(\\\217\302u5@ffffff @\270\036\205\353Q85@\270\036\205\353Q8!@\217\302\365(\\\2178@\037\205\353Q\270\236-@\315\314\314\314\314L$@R\270\036\205\353Q\032@q=\n\327\243p\"@=\n\327\243p\275,@\354Q\270\036\205k/@\341z\024\256G!2@\000\000\000\000\000\000*@\341z\024\256G\341*@\205\353Q\270\036\205\037@ffffff-@\\\217\302\365(\\\022@\024\256G\341z\224\"@\315\314\314\314\314\314\021@\303\365(\\\217\302!@\327\243p=\n\2270@\217\302\365(\\/A@\303\365(\\\217\302\"@\205\353Q\270\036E1@\327\243p=\nW)@\024\256G\341z\024\031@\000\000\000\000\000\000\026@\315\314\314\314\314\314\036@\205\353Q\270\036\205(@\024\256G\341z\2241@H\341z\024\256G#@\315\314\314\314\314L-@\303\365(\\\217\302\022@\205\353Q\270\036\205$@\256G\341z\024\256*@\232\231\231\231\231\231\027@)\\\217\302\365h9@R\270\036\205\353Q5@R\270\036\205\353Q$@\\\217\302\365(\334\"@)\\\217\302\365(%@\366(\\\217\30250@\232\231\231\231\231\0311@\217\302\365(\\\217&@R\270\036\205\353Q\032@\366(\\\217\302\365\025@\354Q\270\036\205\353\023@H\341z\024\256\3075@\270\036\205\353Qx0@\244p=\n\327\243\020@q=\n\327\243p1@\217\302\365(\\\0172@H\341z\024\256G\030@\315\314\314\314\314L\'@\024\256G\341z\0248@\341z\024\256G\341\032@{\024\256G\341z\'@\341z\024\256G\341\010@H\341z\024\256G\t@\303\365(\\\217B$@333333,@\303\365(\\\217\002A@\205\353Q\270\036\005(@\217\302\365(\\\217\n@H\341z\024\256G(@=\n\327\243p=\014@q=\n\327\243\360%@\000\000\000\000\000\000)@=\n\327\243p=\022@\315\314\314\314\314\0142@\256G\341z\024\2562@\315\314\314\314\314\314;@\327\243p=\n\327\007@\217\302\365(\\\017(@\205\353Q\270\036\3053@\217\302\365(\\\217\027@\270\036\205\353Q80@\270\036\205\353Q8$@\\\217\302\365(\334!@ffffff\037@\\\217\302\365(\334(@R\270\036\205\353Q\025@\244p=\n\327\243:@H\341z\024\256G-@\024\256G\341z\024\016@H\341z\024\256\3073@\\\217\302\365(\\\017@\327\243p=\n\327\"@ffffff:@\\\217\302\365(\334 @q=\n\327\243p\031@\244p=\n\327#2@\354Q\270\036\205\353\031@=\n\327\243p=.@\270\036\205\353Q\270\014@\270\036\205\353Q\270\031@\\\217\302\365(\\\032@\232\231\231\231\231\031#@fffff\346&@\327\243p=\n\0271@\205\353Q\270\036\305:@{\024\256G\341\3727@\n\327\243p=\212(@\244p=\n\327\243&@333333\"@)\\\217\302\365\3508@=\n\327\243p=#@\256G\341z\024\356=@\366(\\\217\302\265;@\303\365(\\\217\302\030@\\\217\302\365(\0346@\n\327\243p=\3129@\\\217\302\365(\334#@\232\231\231\231\231\231)@\217\302\365(\\\217\034@\\\217\302\365(\374B@=\n\327\243p=\023@{\024\256G\341z%@\n\327\243p=\n\034@\315\314\314\314\314\014=@\217\302\365(\\\317>@\037\205\353Q\270\2364@\366(\\\217\302\365&@\232\231\231\231\231Y2@\\\217\302\365(\\#@\000\000\000\000\000\000#@\341z\024\256Ga;@H\341z\024\256G)@\232\231\231\231\231\031 @\232\231\231\231\231\2311@\354Q\270\036\205k$@q=\n\327\243p\023@)\\\217\302\365(\031@\000\000\000\000\000\000%@{\024\256G\341\2721@\217\302\365(\\\217\035@)\\\217\302\365\250+@\n\327\243p=\n#@q=\n\327\243\360#@=\n\327\243p=\022@\256G\341z\024.-@\315\314\314\314\314L0@\366(\\\217\302\365+@=\n\327\243p\275%@\217\302\365(\\O1@\366(\\\217\302\365\022@\024\256G\341z\024(@H\341z\024\256\0070@q=\n\327\243\3600@\327\243p=\nW.@\205\353Q\270\036\2053@\000\000\000\000\000\000\025@\341z\024\256Ga#@\024\256G\341z\024\027@fffff&1@R\270\036\205\353Q4@\303\365(\\\217bA@\341z\024\256G\3416@fffff\346\"@\327\243p=\n\327\020@fffff\346$@\303\365(\\\217\302\034@=\n\327\243p\275.@\232\231\231\231\231\2317@\\\217\302\365(\334,@33333s:@\232\231\231\231\231\231-@\270\036\205\353Q8$@\024\256G\341z\224)@\205\353Q\270\036\205\021@{\024\256G\341z\032@)\\\217\302\365(\037@\270\036\205\353Q\270,@H\341z\024\256G\023@=\n\327\243p}B@\232\231\231\231\231\031 @\341z\024\256G\341*@\354Q\270\036\205k#@333333)@\000\000\000\000\000\000\022@\205\353Q\270\036\005!@\024\256G\341z\024\n@\315\314\314\314\314L*@\256G\341z\024.%@\037\205\353Q\270\036\024@)\\\217\302\365(8@R\270\036\205\353Q<@\341z\024\256G\341\010@=\n\327\243p=(@\037\205\353Q\270\036%@\270\036\205\353Q8*@33333s4@\315\314\314\314\314L+@\256G\341z\024\256&@\205\353Q\270\036E1@\303\365(\\\217\302&@\232\231\231\231\231\231\017@\000\000\000\000\000\000#@\037\205\353Q\270\236>@\327\243p=\nW)@R\270\036\205\353\321&@=\n\327\243p\2750@\205\353Q\270\036\0055@{\024\256G\341\3727@R\270\036\205\353Q\037@\341z\024\256G\341!@\315\314\314\314\314\314\021@\n\327\243p=\212$@\000\000\000\000\000\200&@333333.@33333s5@\n\327\243p=\3127@\037\205\353Q\270\036\020@\037\205\353Q\270\036\025@\244p=\n\327\243\027@R\270\036\205\353Q\014@{\024\256G\341\372+@\232\231\231\231\231\231\033@\270\036\205\353Q\270\026@\327\243p=\n\327\r@{\024\256G\341z\033@\270\036\205\353Q\270\026@\217\302\365(\\\217*@{\024\256G\341:0@\327\243p=\nW!@"
      }
    }
  }
}
node {
  name: "normalize_element/component_7"
  op: "Const"
  device: "/device:CPU:0"
  attr {
    key: "_output_shapes"
    value {
      list {
        shape {
          dim {
            size: 405
          }
        }
      }
    }
  }
  attr {
    key: "dtype"
    value {
      type: DT_DOUBLE
    }
  }
  attr {
    key: "value"
    value {
      tensor {
        dtype: DT_DOUBLE
        tensor_shape {
          dim {
            size: 405
          }
        }
        tensor_content: "h\221\355|?5\336?`\345\320\"\333\371\336?y\351&1\010\254\334?\223\030\004V\016-\332?\244p=\n\327\243\350?+\207\026\331\316\367\343?\347\373\251\361\322M\332?\236\357\247\306K7\341?\232\231\231\231\231\231\341?\262\235\357\247\306K\337?\240\032/\335$\006\341?`\345\320\"\333\371\336?\033/\335$\006\201\341?F\266\363\375\324x\331?\234\304 \260rh\341?J\014\002+\207\026\345?F\266\363\375\324x\345?T\343\245\233\304 \340?\217\302\365(\\\217\332?\254\034Zd;\337\353?\234\304 \260rh\341?\254\034Zd;\337\353?\234\304 \260rh\341?Zd;\337O\215\337?F\266\363\375\324x\331?\356|?5^\272\345?\236\357\247\306K7\341?}?5^\272I\334?Nb\020X9\264\344?ffffff\346?\347\373\251\361\322M\332?/\335$\006\201\225\333?\376e\367\344a\241\332?\256G\341z\024\256\347?q=\n\327\243p\335?\270\036\205\353Q\270\342?\256G\341z\024\256\347?\035Zd;\337O\335?J\014\002+\207\026\345?\016-\262\235\357\247\342?q=\n\327\243p\335?{\024\256G\341z\340?\323Mb\020X9\340?\343\245\233\304 \260\342?\331\316\367S\343\245\343?`\345\320\"\333\371\346?\\\217\302\365(\\\343?\223\030\004V\016-\346?\\\217\302\365(\\\343?\244p=\n\327\243\340?\331\316\367S\343\245\343?1\010\254\034Zd\333?\035Zd;\337O\335?\\\217\302\365(\\\343?\260rh\221\355|\343?\313\241E\266\363\375\334?\223\030\004V\016-\346?\234\304 \260rh\341?\236\357\247\306K7\341?\323Mb\020X9\340?`\345\320\"\333\371\346?#\333\371~j\274\334?\223\030\004V\016-\346?\343\245\233\304 \260\342?\262\235\357\247\306K\337?\010\254\034Zd;\337?\323Mb\020X9\340?\372~j\274t\223\340?+\207\026\331\316\367\333?\\\217\302\365(\\\343?Zd;\337O\215\337?ffffff\346?`\345\320\"\333\371\346?\236\357\247\306K7\341?\244p=\n\327\243\340?\240\032/\335$\006\341?\376\324x\351&1\344?L7\211A`\345\330?\254\034Zd;\337\353?\347\373\251\361\322M\332?+\207\026\331\316\367\343?\033/\335$\006\201\341?+\207\026\331\316\367\333?\256G\341z\024\256\347?\333\371~j\274t\333?\232\231\231\231\231\231\331?7\211A`\345\320\346?Zd;\337O\215\337?\270\036\205\353Q\270\342?+\207\026\331\316\367\343?\274t\223\030\004V\342?Nb\020X9\264\344?\260rh\221\355|\343?\370S\343\245\233\304\340?\356|?5^\272\345?\370S\343\245\233\304\340?\274t\223\030\004V\342?\031\004V\016-\262\335?T\343\245\233\304 \340?\244p=\n\327\243\340?\343\245\233\304 \260\342?\256G\341z\024\256\347?y\351&1\010\254\334?\313\241E\266\363\375\334?ffffff\346?+\207\026\331\316\367\333?\343\245\233\304 \260\342?\\\217\302\365(\\\343?\010\254\034Zd;\337?\244p=\n\327\243\340?ffffff\342?R\270\036\205\353Q\340?\356|?5^\272\345?h\221\355|?5\336?Nb\020X9\264\344?+\207\026\331\316\367\333?{\024\256G\341z\340?\236\357\247\306K7\341?1\010\254\034Zd\333?ffffff\342?q=\n\327\243p\335?7\211A`\345\320\346?y\351&1\010\254\334?\244p=\n\327\243\350?\354Q\270\036\205\353\331?\270\036\205\353Q\270\342?+\207\026\331\316\367\333?\274t\223\030\004V\342?R\270\036\205\353Q\340?\335$\006\201\225C\333?y\351&1\010\254\334?\234\304 \260rh\341?\031\004V\016-\262\335?ffffff\346?\335$\006\201\225C\333?h\221\355|?5\336?\254\034Zd;\337\353?7\211A`\345\320\346?\010\254\034Zd;\337?F\266\363\375\324x\345?;\337O\215\227n\332?+\207\026\331\316\367\343?\244p=\n\327\243\340?1\010\254\034Zd\333?\347\373\251\361\322M\332?/\335$\006\201\225\333?Zd;\337O\215\337?\343\245\233\304 \260\342?{\024\256G\341z\334?d;\337O\215\227\342?Nb\020X9\264\344?\236\357\247\306K7\341?\236\357\247\306K7\341?\313\241E\266\363\375\334?F\266\363\375\324x\345?1\010\254\034Zd\333?`\345\320\"\333\371\346?\031\004V\016-\262\335?\262\235\357\247\306K\337?\323Mb\020X9\340?{\024\256G\341z\334?`\345\320\"\333\371\346?/\335$\006\201\225\333?`\345\320\"\333\371\346?\331\316\367S\343\245\343?\244p=\n\327\243\330?\333\371~j\274t\333?F\266\363\375\324x\345?+\207\026\331\316\367\343?\335$\006\201\225C\333?7\211A`\345\320\346?\262\235\357\247\306K\337?\236\357\247\306K7\341?\262\235\357\247\306K\337?\217\302\365(\\\217\342?;\337O\215\227n\332?+\207\026\331\316\367\333?\\\217\302\365(\\\343?\\\217\302\365(\\\343?\223\030\004V\016-\332?\323Mb\020X9\340?\262\235\357\247\306K\337?\264\310v\276\237\032\343?B`\345\320\"\333\331?ffffff\346?d;\337O\215\227\342?/\335$\006\201\225\333?\031\004V\016-\262\335?\313\241E\266\363\375\334?d;\337O\215\227\342?\370S\343\245\233\304\340?7\211A`\345\320\346?\031\004V\016-\262\335?F\266\363\375\324x\345?\274t\223\030\004V\342?7\211A`\345\320\346?\\\217\302\365(\\\343?{\024\256G\341z\340?\010\254\034Zd;\337?\307K7\211A`\345?\256G\341z\024\256\347?\264\310v\276\237\032\343?\262\235\357\247\306K\337?7\211A`\345\320\346?}?5^\272I\334?+\207\026\331\316\367\333?\262\235\357\247\306K\337?Zd;\337O\215\337?+\207\026\331\316\367\343?d;\337O\215\227\342?R\270\036\205\353Q\340?7\211A`\345\320\346?+\207\026\331\316\367\333?\236\357\247\306K7\341?\016-\262\235\357\247\342?/\335$\006\201\225\333?d;\337O\215\227\342?+\207\026\331\316\367\343?\033/\335$\006\201\341?\177j\274t\223\030\334?\016-\262\235\357\247\342?\033/\335$\006\201\341?\370S\343\245\233\304\340?\236\357\247\306K7\341?\236\357\247\306K7\341?}?5^\272I\334?\236\357\247\306K7\341?F\266\363\375\324x\345?\244p=\n\327\243\340?\317\367S\343\245\233\334?7\211A`\345\320\346?\260rh\221\355|\343?\232\231\231\231\231\231\331?T\343\245\233\304 \340?\356|?5^\272\345?;\337O\215\227n\332?Zd;\337O\215\337?\236\357\247\306K7\331?D\213l\347\373\251\331?V\016-\262\235\357\337?\254\034Zd;\337\353?\256G\341z\024\256\347?\270\036\205\353Q\270\342?\\\217\302\365(\\\343?\\\217\302\365(\\\343?\317\367S\343\245\233\334?\262\235\357\247\306K\337?/\335$\006\201\225\333?+\207\026\331\316\367\333?\256G\341z\024\256\347?\331\316\367S\343\245\343?\254\034Zd;\337\353?\317\367S\343\245\233\334?\343\245\233\304 \260\342?\223\030\004V\016-\346?\333\371~j\274t\333?7\211A`\345\320\346?\264\310v\276\237\032\343?h\221\355|?5\336?\232\231\231\231\231\231\331?\021\307\272\270\215\006\334?R\270\036\205\353Q\340?\356|?5^\272\345?\244p=\n\327\243\350?T\343\245\233\304 \340?\264\310v\276\237\032\343?T\343\245\233\304 \340?\244p=\n\327\243\340?\264\310v\276\237\032\343?\177j\274t\223\030\334?T\343\245\233\304 \340?\343\245\233\304 \260\342?\274t\223\030\004V\342?\254\034Zd;\337\353?/\335$\006\201\225\333?\\\217\302\365(\\\343?\031\004V\016-\262\335?y\351&1\010\254\334?\016-\262\235\357\247\342?\033/\335$\006\201\341?\223\030\004V\016-\346?\262\235\357\247\306K\337?\244p=\n\327\243\340?\\\217\302\365(\\\343?+\207\026\331\316\367\333?\331\316\367S\343\245\343?#\333\371~j\274\334?\370S\343\245\233\304\340?\236\357\247\306K7\341?{\024\256G\341z\334?\256G\341z\024\256\347?\356|?5^\272\345?\323Mb\020X9\340?\236\357\247\306K7\341?\354Q\270\036\205\353\331?\307K7\211A`\345?\230n\022\203\300\312\331?\240\032/\335$\006\341?\240\032/\335$\006\341?\356|?5^\272\345?y\351&1\010\254\334?\356|?5^\272\345?\244p=\n\327\243\350?\236\357\247\306K7\341?V\016-\262\235\357\337?\313\241E\266\363\375\334?\223\030\004V\016-\346?\234\304 \260rh\341?\323Mb\020X9\340?\270\036\205\353Q\270\342?y\351&1\010\254\334?\203\300\312\241E\266\333?R\270\036\205\353Q\340?\232\231\231\231\231\231\341?7\211A`\345\320\346?+\207\026\331\316\367\333?\236\357\247\306K7\341?/\335$\006\201\225\333?\234\304 \260rh\341?\230n\022\203\300\312\331?+\207\026\331\316\367\343?\236\357\247\306K7\341?\010\254\034Zd;\337?\262\235\357\247\306K\337?+\207\026\331\316\367\343?\232\231\231\231\231\231\331?\033/\335$\006\201\341?\262\235\357\247\306K\337?7\211A`\345\320\346?7\211A`\345\320\346?\256G\341z\024\256\347?T\343\245\233\304 \340?\232\231\231\231\231\231\341?=\n\327\243p=\332?\366(\\\217\302\365\344?\223\030\004V\016-\346?\307K7\211A`\345?\256G\341z\024\256\347?\010\254\034Zd;\337?{\024\256G\341z\334?\033/\335$\006\201\341?\317\367S\343\245\233\334?\033/\335$\006\201\341?ffffff\346?\\\217\302\365(\\\343?\256G\341z\024\256\347?=\n\327\243p=\332?R\270\036\205\353Q\340?Zd;\337O\215\337?D\213l\347\373\251\331?B`\345\320\"\333\331?\244p=\n\327\243\350?\217\302\365(\\\217\342?\010\254\034Zd;\337?\223\030\004V\016-\346?;\337O\215\227n\332?\244p=\n\327\243\340?\323Mb\020X9\340?+\207\026\331\316\367\343?=\n\327\243p=\332?{\024\256G\341z\340?\376\324x\351&1\344?\313\241E\266\363\375\334?\031\004V\016-\262\335?D\213l\347\373\251\331?+\207\026\331\316\367\343?\254\034Zd;\337\353?\217\302\365(\\\217\332?\254\034Zd;\337\353?{\024\256G\341z\340?\331\316\367S\343\245\343?\370S\343\245\233\304\340?\031\004V\016-\262\335?{\024\256G\341z\334?\262\235\357\247\306K\337?1\010\254\034Zd\333?\347\373\251\361\322M\332?\203\300\312\241E\266\333?ffffff\346?\244p=\n\327\243\350?V\016-\262\235\357\337?7\211A`\345\320\346?\236\357\247\306K7\341?\256G\341z\024\256\347?\021\307\272\270\215\006\334?+\207\026\331\316\367\333?\230n\022\203\300\312\331?+\207\026\331\316\367\333?Nb\020X9\264\344?\270\036\205\353Q\270\342?\254\034Zd;\337\353?\256G\341z\024\256\347?j\274t\223\030\004\336?\177j\274t\223\030\334?Nb\020X9\264\344?/\335$\006\201\225\333?7\211A`\345\320\346?Nb\020X9\264\344?{\024\256G\341z\340?\376\324x\351&1\344?Zd;\337O\215\337?\010\254\034Zd;\337?\254\034Zd;\337\353?7\211A`\345\320\346?\203\300\312\241E\266\333?"
      }
    }
  }
}
node {
  name: "normalize_element/component_8"
  op: "Const"
  device: "/device:CPU:0"
  attr {
    key: "_output_shapes"
    value {
      list {
        shape {
          dim {
            size: 405
          }
        }
      }
    }
  }
  attr {
    key: "dtype"
    value {
      type: DT_DOUBLE
    }
  }
  attr {
    key: "value"
    value {
      tensor {
        dtype: DT_DOUBLE
        tensor_shape {
          dim {
            size: 405
          }
        }
        tensor_content: "ffffff2@\232\231\231\231\231\2311@fffff\3461@fffff\3462@3333334@3333335@3333333@\000\000\000\000\000\0005@ffffff0@\315\314\314\314\314\3141@3333334@\232\231\231\231\231\2311@\315\314\314\314\314\3141@\232\231\231\231\231\0310@ffffff2@3333334@3333334@ffffff1@ffffff-@ffffff-@ffffff2@ffffff-@ffffff2@\232\231\231\231\231\2313@\232\231\231\231\231\0310@3333334@\000\000\000\000\000\0005@\315\314\314\314\314\3142@\000\000\000\000\000\000*@3333334@\315\314\314\314\314L2@\232\231\231\231\231\0313@ffffff-@3333334@fffff\3460@3333333@3333334@33333\2632@3333334@3333334@fffff\3460@3333334@ffffff1@3333334@3333334@3333334@ffffff-@3333334@ffffff-@fffff\3464@3333334@\232\231\231\231\231\2310@33333\2632@ffffff-@\232\231\231\231\231\0314@33333\2633@3333334@ffffff2@\000\000\000\000\000\0005@ffffff1@3333334@\000\000\000\000\000\2002@3333334@3333334@\232\231\231\231\231\2312@\315\314\314\314\314\3141@ffffff1@\315\314\314\314\314\314/@\000\000\000\000\000\0000@ffffff-@\232\231\231\231\231\2313@3333334@3333334@\000\000\000\000\000\0005@fffff\3464@3333334@3333334@\232\231\231\231\231\231.@ffffff-@3333333@3333335@\315\314\314\314\314\3141@ffffff.@3333334@33333\2633@\232\231\231\231\231\231-@3333334@\232\231\231\231\231\2313@3333333@3333335@\000\000\000\000\000\0005@\000\000\000\000\000\000*@\232\231\231\231\231\0314@ffffff.@3333334@ffffff.@\000\000\000\000\000\0005@3333332@ffffff1@fffff\3464@3333334@3333334@fffff\3461@33333\2633@3333334@33333\2632@3333334@ffffff-@\315\314\314\314\314\3141@fffff\3464@\000\000\000\000\000\000*@\232\231\231\231\231\2310@3333334@ffffff2@\000\000\000\000\000\000*@ffffff.@3333334@\000\000\000\000\000\0005@\315\314\314\314\314L2@\000\000\000\000\000\000*@fffff\3460@3333334@fffff\3461@3333334@\232\231\231\231\231\2310@3333333@\000\000\000\000\000\0000@\000\000\000\000\000\0005@\232\231\231\231\231\2310@\000\000\000\000\000\0003@fffff\3461@ffffff2@3333332@3333334@\000\000\000\000\000\0003@ffffff2@ffffff-@3333334@\315\314\314\314\314\3141@3333334@\000\000\000\000\000\0006@3333335@fffff\3464@\232\231\231\231\231\2310@3333333@\232\231\231\231\231\0313@\232\231\231\231\231\2313@3333334@\000\000\000\000\000\0002@\232\231\231\231\231\0313@\000\000\000\000\000\000*@\000\000\000\000\000\0005@\000\000\000\000\000\0005@33333\2633@3333334@\315\314\314\314\314L2@3333334@\232\231\231\231\231\2312@\232\231\231\231\231\2312@ffffff1@\000\000\000\000\000\0002@3333334@\232\231\231\231\231\0313@3333334@3333334@3333332@fffff\3461@3333334@3333335@\000\000\000\000\000\0003@3333334@\232\231\231\231\231\2312@\000\000\000\000\000\0005@\315\314\314\314\314\3141@3333334@3333333@ffffff.@ffffff-@ffffff-@fffff\3462@ffffff1@\315\314\314\314\314\3141@3333334@333333)@3333334@\232\231\231\231\231\0313@\232\231\231\231\231\0313@\232\231\231\231\231\2312@33333\2633@\232\231\231\231\231\0313@ffffff.@3333334@\232\231\231\231\231\2312@3333334@\000\000\000\000\000\0005@3333334@ffffff-@3333334@\315\314\314\314\314\3141@3333334@3333334@3333334@\232\231\231\231\231\2312@3333334@\315\314\314\314\314\3142@\000\000\000\000\000\0000@\315\314\314\314\314\3141@\232\231\231\231\231\2313@3333335@\232\231\231\231\231\0313@\232\231\231\231\231\2310@3333334@ffffff.@\000\000\000\000\000\0005@3333334@\232\231\231\231\231\0313@\232\231\231\231\231\0313@3333335@\315\314\314\314\314\3141@\315\314\314\314\314\3140@3333334@\315\314\314\314\314\3141@ffffff.@\000\000\000\000\000\0005@\000\000\000\000\000\0005@\000\000\000\000\000\000/@\232\231\231\231\231\231.@3333334@fffff\3464@\232\231\231\231\231\2311@3333334@\232\231\231\231\231\0314@\232\231\231\231\231\231-@ffffff1@3333334@3333333@\232\231\231\231\231\2313@\315\314\314\314\314\314/@333333+@3333333@ffffff-@3333334@3333333@ffffff-@ffffff-@\232\231\231\231\231\2311@\232\231\231\231\231\2312@\232\231\231\231\231\0313@ffffff.@3333334@3333334@ffffff-@\232\231\231\231\231\2311@3333334@3333334@33333\2633@3333334@3333334@ffffff2@\232\231\231\231\231\231.@fffff\3460@\232\231\231\231\231\2310@3333334@3333334@ffffff1@3333334@ffffff1@fffff\3464@3333334@\315\314\314\314\314\3140@ffffff1@3333334@\000\000\000\000\000\0005@ffffff-@\232\231\231\231\231\0313@ffffff-@\232\231\231\231\231\2312@fffff\3461@3333334@\315\314\314\314\314\3141@3333334@\232\231\231\231\231\2312@fffff\3464@ffffff-@33333\2632@3333334@\000\000\000\000\000\2002@ffffff.@\000\000\000\000\000\0005@\000\000\000\000\000\0002@3333334@3333334@ffffff1@\000\000\000\000\000\0005@\232\231\231\231\231\2310@3333334@fffff\3461@3333334@3333334@3333334@fffff\3461@3333334@3333334@\000\000\000\000\000\0005@3333333@33333\2633@3333334@ffffff2@ffffff1@3333333@fffff\3461@\232\231\231\231\231\0310@\232\231\231\231\231\2310@ffffff0@3333334@\000\000\000\000\000\0000@\000\000\000\000\000\0005@\232\231\231\231\231\0313@ffffff2@\000\000\000\000\000\0001@3333335@\000\000\000\000\000\0005@\315\314\314\314\314\3141@\232\231\231\231\231\2312@3333335@\232\231\231\231\231\231-@\315\314\314\314\314\3141@\232\231\231\231\231\2312@3333334@3333334@3333334@ffffff1@ffffff0@\315\314\314\314\314L1@3333334@3333334@3333334@3333334@\315\314\314\314\314\3141@\000\000\000\000\000\0002@\315\314\314\314\314\3141@\232\231\231\231\231\2311@\315\314\314\314\314\3141@3333334@ffffff-@3333334@\232\231\231\231\231\0315@\232\231\231\231\231\2310@\232\231\231\231\231\2313@333333/@333333)@3333334@3333334@\315\314\314\314\314\3141@3333334@\000\000\000\000\000\0006@fffff\3464@ffffff1@3333335@\000\000\000\000\000\0001@3333334@3333334@33333\2633@3333332@333333/@3333335@ffffff-@ffffff-@ffffff-@3333334@3333334@ffffff.@\232\231\231\231\231\2312@\000\000\000\000\000\0002@\232\231\231\231\231\2312@\232\231\231\231\231\2310@333333.@\232\231\231\231\231\0310@3333334@3333334@3333333@3333334@\000\000\000\000\000\0005@3333334@fffff\3460@33333\2632@\000\000\000\000\000\0001@33333\2632@\000\000\000\000\000\000*@3333333@ffffff-@3333334@\315\314\314\314\314\3141@\315\314\314\314\314\3140@\000\000\000\000\000\000*@\232\231\231\231\231\0313@3333334@\000\000\000\000\000\000*@3333334@3333334@\232\231\231\231\231\2313@\315\314\314\314\314\3141@ffffff-@3333334@\232\231\231\231\231\0310@"
      }
    }
  }
}
node {
  name: "normalize_element/component_9"
  op: "Const"
  device: "/device:CPU:0"
  attr {
    key: "_output_shapes"
    value {
      list {
        shape {
          dim {
            size: 405
          }
        }
      }
    }
  }
  attr {
    key: "dtype"
    value {
      type: DT_INT64
    }
  }
  attr {
    key: "value"
    value {
      tensor {
        dtype: DT_INT64
        tensor_shape {
          dim {
            size: 405
          }
        }
